#include "magic_wand_model_data.h"


// We need to keep the data array aligned on some architectures.

#ifdef __has_attribute

#define HAVE_ATTRIBUTE(x) __has_attribute(x)

#else

#define HAVE_ATTRIBUTE(x) 0

#endif

#if HAVE_ATTRIBUTE(aligned) || (defined(__GNUC__) && !defined(__clang__))

#define DATA_ALIGN_ATTRIBUTE __attribute__((aligned(4)))

#else

#define DATA_ALIGN_ATTRIBUTE

#endif


const unsigned char g_magic_wand_model_data[] DATA_ALIGN_ATTRIBUTE = {

  // Paste the data of the char array in `src/model.cc` here
  0x08, 0x00, 0x00, 0x00, 0x54, 0x46, 0x4c, 0x33, 0x62, 0xff, 0xff, 0xff,
  0x03, 0x00, 0x00, 0x00, 0x10, 0x00, 0x00, 0x00, 0x24, 0x00, 0x00, 0x00,
  0x78, 0x00, 0x00, 0x00, 0x24, 0x00, 0x00, 0x00, 0x05, 0x00, 0x00, 0x00,
  0x78, 0x05, 0x00, 0x00, 0xb0, 0x04, 0x00, 0x00, 0xe0, 0x02, 0x00, 0x00,
  0x60, 0x02, 0x00, 0x00, 0x54, 0x01, 0x00, 0x00, 0x01, 0x00, 0x00, 0x00,
  0x78, 0x00, 0x00, 0x00, 0x13, 0x00, 0x00, 0x00, 0x5c, 0x30, 0x00, 0x00,
  0x58, 0x30, 0x00, 0x00, 0x64, 0x2f, 0x00, 0x00, 0xe8, 0x2e, 0x00, 0x00,
  0x7c, 0x2e, 0x00, 0x00, 0x2c, 0x12, 0x00, 0x00, 0x98, 0x10, 0x00, 0x00,
  0xbc, 0x0e, 0x00, 0x00, 0x60, 0x06, 0x00, 0x00, 0xfc, 0x05, 0x00, 0x00,
  0x78, 0x05, 0x00, 0x00, 0x30, 0x30, 0x00, 0x00, 0x2c, 0x30, 0x00, 0x00,
  0x28, 0x30, 0x00, 0x00, 0x24, 0x30, 0x00, 0x00, 0x20, 0x30, 0x00, 0x00,
  0x1c, 0x30, 0x00, 0x00, 0x18, 0x30, 0x00, 0x00, 0x14, 0x30, 0x00, 0x00,
  0x0f, 0x00, 0x00, 0x00, 0x4d, 0x4c, 0x49, 0x52, 0x20, 0x43, 0x6f, 0x6e,
  0x76, 0x65, 0x72, 0x74, 0x65, 0x64, 0x2e, 0x00, 0x00, 0x00, 0x0e, 0x00,
  0x18, 0x00, 0x04, 0x00, 0x08, 0x00, 0x0c, 0x00, 0x10, 0x00, 0x14, 0x00,
  0x0e, 0x00, 0x00, 0x00, 0x14, 0x00, 0x00, 0x00, 0x5c, 0x00, 0x00, 0x00,
  0x60, 0x00, 0x00, 0x00, 0x64, 0x00, 0x00, 0x00, 0x84, 0x00, 0x00, 0x00,
  0x12, 0x00, 0x00, 0x00, 0x8c, 0x2f, 0x00, 0x00, 0x28, 0x2f, 0x00, 0x00,
  0x80, 0x2e, 0x00, 0x00, 0x18, 0x2e, 0x00, 0x00, 0xb0, 0x2d, 0x00, 0x00,
  0x5c, 0x11, 0x00, 0x00, 0xc0, 0x0f, 0x00, 0x00, 0xe4, 0x0d, 0x00, 0x00,
  0xa0, 0x05, 0x00, 0x00, 0x3c, 0x05, 0x00, 0x00, 0xb0, 0x04, 0x00, 0x00,
  0xe8, 0x03, 0x00, 0x00, 0x38, 0x03, 0x00, 0x00, 0xa4, 0x02, 0x00, 0x00,
  0x10, 0x02, 0x00, 0x00, 0x90, 0x01, 0x00, 0x00, 0xfc, 0x00, 0x00, 0x00,
  0x80, 0x00, 0x00, 0x00, 0x01, 0x00, 0x00, 0x00, 0x00, 0x00, 0x00, 0x00,
  0x01, 0x00, 0x00, 0x00, 0x11, 0x00, 0x00, 0x00, 0x08, 0x00, 0x00, 0x00,
  0x1c, 0x04, 0x00, 0x00, 0x58, 0x03, 0x00, 0x00, 0xc8, 0x02, 0x00, 0x00,
  0x24, 0x02, 0x00, 0x00, 0xac, 0x01, 0x00, 0x00, 0x10, 0x01, 0x00, 0x00,
  0x94, 0x00, 0x00, 0x00, 0x10, 0x00, 0x00, 0x00, 0x04, 0x00, 0x00, 0x00,
  0x6d, 0x61, 0x69, 0x6e, 0x00, 0x00, 0x00, 0x00, 0x8e, 0xff, 0xff, 0xff,
  0x00, 0x00, 0x00, 0x09, 0x04, 0x00, 0x00, 0x00, 0x1c, 0x00, 0x00, 0x00,
  0x10, 0x00, 0x00, 0x00, 0x04, 0x00, 0x00, 0x00, 0xc6, 0xd1, 0xff, 0xff,
  0x00, 0x00, 0x80, 0x3f, 0x01, 0x00, 0x00, 0x00, 0x11, 0x00, 0x00, 0x00,
  0x01, 0x00, 0x00, 0x00, 0x10, 0x00, 0x00, 0x00, 0xf6, 0xfb, 0xff, 0xff,
  0x00, 0x00, 0x00, 0x19, 0x01, 0x00, 0x00, 0x00, 0x46, 0xd1, 0xff, 0xff,
  0x10, 0x00, 0x00, 0x00, 0x12, 0x00, 0x00, 0x00, 0x14, 0x00, 0x00, 0x00,
  0x20, 0x00, 0x00, 0x00, 0x02, 0x00, 0x00, 0x00, 0x01, 0x00, 0x00, 0x00,
  0x05, 0x00, 0x00, 0x00, 0x08, 0x00, 0x00, 0x00, 0x49, 0x64, 0x65, 0x6e,
  0x74, 0x69, 0x74, 0x79, 0x00, 0x00, 0x00, 0x00, 0x80, 0xd1, 0xff, 0xff,
  0x00, 0x00, 0x0e, 0x00, 0x18, 0x00, 0x08, 0x00, 0x0c, 0x00, 0x10, 0x00,
  0x07, 0x00, 0x14, 0x00, 0x0e, 0x00, 0x00, 0x00, 0x00, 0x00, 0x00, 0x08,
  0x03, 0x00, 0x00, 0x00, 0x18, 0x00, 0x00, 0x00, 0x0c, 0x00, 0x00, 0x00,
  0x04, 0x00, 0x00, 0x00, 0x54, 0xd1, 0xff, 0xff, 0x01, 0x00, 0x00, 0x00,
  0x10, 0x00, 0x00, 0x00, 0x03, 0x00, 0x00, 0x00, 0x0f, 0x00, 0x00, 0x00,
  0x05, 0x00, 0x00, 0x00, 0x02, 0x00, 0x00, 0x00, 0xbe, 0xd1, 0xff, 0xff,
  0x10, 0x00, 0x00, 0x00, 0x11, 0x00, 0x00, 0x00, 0x14, 0x00, 0x00, 0x00,
  0x30, 0x00, 0x00, 0x00, 0x02, 0x00, 0x00, 0x00, 0x01, 0x00, 0x00, 0x00,
  0x05, 0x00, 0x00, 0x00, 0x1a, 0x00, 0x00, 0x00, 0x73, 0x65, 0x71, 0x75,
  0x65, 0x6e, 0x74, 0x69, 0x61, 0x6c, 0x2f, 0x64, 0x65, 0x6e, 0x73, 0x65,
  0x5f, 0x31, 0x2f, 0x42, 0x69, 0x61, 0x73, 0x41, 0x64, 0x64, 0x00, 0x00,
  0xb0, 0xd1, 0xff, 0xff, 0xd6, 0xfd, 0xff, 0xff, 0x00, 0x00, 0x00, 0x08,
  0x03, 0x00, 0x00, 0x00, 0x24, 0x00, 0x00, 0x00, 0x18, 0x00, 0x00, 0x00,
  0x0c, 0x00, 0x00, 0x00, 0x00, 0x00, 0x06, 0x00, 0x08, 0x00, 0x07, 0x00,
  0x06, 0x00, 0x00, 0x00, 0x00, 0x00, 0x00, 0x01, 0x01, 0x00, 0x00, 0x00,
  0x0f, 0x00, 0x00, 0x00, 0x03, 0x00, 0x00, 0x00, 0x0e, 0x00, 0x00, 0x00,
  0x04, 0x00, 0x00, 0x00, 0x01, 0x00, 0x00, 0x00, 0xfe, 0xfc, 0xff, 0xff,
  0x00, 0x00, 0x00, 0x09, 0x01, 0x00, 0x00, 0x00, 0x4e, 0xd2, 0xff, 0xff,
  0x10, 0x00, 0x00, 0x00, 0x10, 0x00, 0x00, 0x00, 0x14, 0x00, 0x00, 0x00,
  0x2c, 0x00, 0x00, 0x00, 0x02, 0x00, 0x00, 0x00, 0x01, 0x00, 0x00, 0x00,
  0x10, 0x00, 0x00, 0x00, 0x15, 0x00, 0x00, 0x00, 0x73, 0x65, 0x71, 0x75,
  0x65, 0x6e, 0x74, 0x69, 0x61, 0x6c, 0x2f, 0x64, 0x65, 0x6e, 0x73, 0x65,
  0x2f, 0x52, 0x65, 0x6c, 0x75, 0x00, 0x00, 0x00, 0x94, 0xd2, 0xff, 0xff,
  0x00, 0x00, 0x0a, 0x00, 0x10, 0x00, 0x04, 0x00, 0x08, 0x00, 0x0c, 0x00,
  0x0a, 0x00, 0x00, 0x00, 0x02, 0x00, 0x00, 0x00, 0x10, 0x00, 0x00, 0x00,
  0x04, 0x00, 0x00, 0x00, 0x01, 0x00, 0x00, 0x00, 0x0e, 0x00, 0x00, 0x00,
  0x02, 0x00, 0x00, 0x00, 0x0d, 0x00, 0x00, 0x00, 0x03, 0x00, 0x00, 0x00,
  0x7a, 0xfd, 0xff, 0xff, 0x00, 0x00, 0x00, 0x16, 0x01, 0x00, 0x00, 0x00,
  0xca, 0xd2, 0xff, 0xff, 0x10, 0x00, 0x00, 0x00, 0x0f, 0x00, 0x00, 0x00,
  0x14, 0x00, 0x00, 0x00, 0x30, 0x00, 0x00, 0x00, 0x02, 0x00, 0x00, 0x00,
  0x01, 0x00, 0x00, 0x00, 0x70, 0x00, 0x00, 0x00, 0x1a, 0x00, 0x00, 0x00,
  0x73, 0x65, 0x71, 0x75, 0x65, 0x6e, 0x74, 0x69, 0x61, 0x6c, 0x2f, 0x66,
  0x6c, 0x61, 0x74, 0x74, 0x65, 0x6e, 0x2f, 0x52, 0x65, 0x73, 0x68, 0x61,
  0x70, 0x65, 0x00, 0x00, 0xbc, 0xd2, 0xff, 0xff, 0xe2, 0xfe, 0xff, 0xff,
  0x00, 0x00, 0x00, 0x05, 0x01, 0x00, 0x00, 0x00, 0x38, 0x00, 0x00, 0x00,
  0x2c, 0x00, 0x00, 0x00, 0x14, 0x00, 0x00, 0x00, 0x00, 0x00, 0x0e, 0x00,
  0x14, 0x00, 0x00, 0x00, 0x10, 0x00, 0x0c, 0x00, 0x08, 0x00, 0x04, 0x00,
  0x0e, 0x00, 0x00, 0x00, 0x03, 0x00, 0x00, 0x00, 0x01, 0x00, 0x00, 0x00,
  0x03, 0x00, 0x00, 0x00, 0x01, 0x00, 0x00, 0x00, 0x01, 0x00, 0x00, 0x00,
  0x0d, 0x00, 0x00, 0x00, 0x01, 0x00, 0x00, 0x00, 0x0c, 0x00, 0x00, 0x00,
  0x5a, 0xd3, 0xff, 0xff, 0x10, 0x00, 0x00, 0x00, 0x0e, 0x00, 0x00, 0x00,
  0x1c, 0x00, 0x00, 0x00, 0x40, 0x00, 0x00, 0x00, 0x04, 0x00, 0x00, 0x00,
  0x01, 0x00, 0x00, 0x00, 0x07, 0x00, 0x00, 0x00, 0x01, 0x00, 0x00, 0x00,
  0x10, 0x00, 0x00, 0x00, 0x22, 0x00, 0x00, 0x00, 0x73, 0x65, 0x71, 0x75,
  0x65, 0x6e, 0x74, 0x69, 0x61, 0x6c, 0x2f, 0x6d, 0x61, 0x78, 0x5f, 0x70,
  0x6f, 0x6f, 0x6c, 0x69, 0x6e, 0x67, 0x32, 0x64, 0x5f, 0x31, 0x2f, 0x4d,
  0x61, 0x78, 0x50, 0x6f, 0x6f, 0x6c, 0x00, 0x00, 0x5c, 0xd3, 0xff, 0xff,
  0xc2, 0xfe, 0xff, 0xff, 0x00, 0x00, 0x00, 0x01, 0x24, 0x00, 0x00, 0x00,
  0x18, 0x00, 0x00, 0x00, 0x04, 0x00, 0x00, 0x00, 0xb4, 0xfe, 0xff, 0xff,
  0x01, 0x00, 0x00, 0x00, 0x01, 0x00, 0x00, 0x00, 0x00, 0x00, 0x00, 0x01,
  0x01, 0x00, 0x00, 0x00, 0x0c, 0x00, 0x00, 0x00, 0x03, 0x00, 0x00, 0x00,
  0x0b, 0x00, 0x00, 0x00, 0x07, 0x00, 0x00, 0x00, 0x09, 0x00, 0x00, 0x00,
  0xea, 0xd3, 0xff, 0xff, 0x10, 0x00, 0x00, 0x00, 0x0d, 0x00, 0x00, 0x00,
  0x1c, 0x00, 0x00, 0x00, 0x2c, 0x00, 0x00, 0x00, 0x04, 0x00, 0x00, 0x00,
  0x01, 0x00, 0x00, 0x00, 0x15, 0x00, 0x00, 0x00, 0x01, 0x00, 0x00, 0x00,
  0x10, 0x00, 0x00, 0x00, 0x0c, 0x00, 0x00, 0x00, 0x74, 0x66, 0x6c, 0x2e,
  0x63, 0x6f, 0x6e, 0x76, 0x5f, 0x32, 0x64, 0x31, 0x00, 0x00, 0x00, 0x00,
  0x30, 0xd4, 0xff, 0xff, 0x00, 0x00, 0x0e, 0x00, 0x1a, 0x00, 0x08, 0x00,
  0x0c, 0x00, 0x10, 0x00, 0x07, 0x00, 0x14, 0x00, 0x0e, 0x00, 0x00, 0x00,
  0x00, 0x00, 0x00, 0x05, 0x01, 0x00, 0x00, 0x00, 0x3c, 0x00, 0x00, 0x00,
  0x30, 0x00, 0x00, 0x00, 0x14, 0x00, 0x00, 0x00, 0x00, 0x00, 0x0e, 0x00,
  0x18, 0x00, 0x17, 0x00, 0x10, 0x00, 0x0c, 0x00, 0x08, 0x00, 0x04, 0x00,
  0x0e, 0x00, 0x00, 0x00, 0x03, 0x00, 0x00, 0x00, 0x03, 0x00, 0x00, 0x00,
  0x03, 0x00, 0x00, 0x00, 0x03, 0x00, 0x00, 0x00, 0x00, 0x00, 0x00, 0x01,
  0x01, 0x00, 0x00, 0x00, 0x0b, 0x00, 0x00, 0x00, 0x01, 0x00, 0x00, 0x00,
  0x0a, 0x00, 0x00, 0x00, 0x46, 0xff, 0xff, 0xff, 0x00, 0x00, 0x00, 0x11,
  0x01, 0x00, 0x00, 0x00, 0x96, 0xd4, 0xff, 0xff, 0x10, 0x00, 0x00, 0x00,
  0x0c, 0x00, 0x00, 0x00, 0x1c, 0x00, 0x00, 0x00, 0x40, 0x00, 0x00, 0x00,
  0x04, 0x00, 0x00, 0x00, 0x01, 0x00, 0x00, 0x00, 0x15, 0x00, 0x00, 0x00,
  0x01, 0x00, 0x00, 0x00, 0x08, 0x00, 0x00, 0x00, 0x20, 0x00, 0x00, 0x00,
  0x73, 0x65, 0x71, 0x75, 0x65, 0x6e, 0x74, 0x69, 0x61, 0x6c, 0x2f, 0x6d,
  0x61, 0x78, 0x5f, 0x70, 0x6f, 0x6f, 0x6c, 0x69, 0x6e, 0x67, 0x32, 0x64,
  0x2f, 0x4d, 0x61, 0x78, 0x50, 0x6f, 0x6f, 0x6c, 0x00, 0x00, 0x00, 0x00,
  0xf0, 0xd4, 0xff, 0xff, 0x00, 0x00, 0x0e, 0x00, 0x14, 0x00, 0x00, 0x00,
  0x08, 0x00, 0x0c, 0x00, 0x07, 0x00, 0x10, 0x00, 0x0e, 0x00, 0x00, 0x00,
  0x00, 0x00, 0x00, 0x01, 0x30, 0x00, 0x00, 0x00, 0x24, 0x00, 0x00, 0x00,
  0x10, 0x00, 0x00, 0x00, 0x0c, 0x00, 0x10, 0x00, 0x00, 0x00, 0x04, 0x00,
  0x08, 0x00, 0x0f, 0x00, 0x0c, 0x00, 0x00, 0x00, 0x01, 0x00, 0x00, 0x00,
  0x01, 0x00, 0x00, 0x00, 0x00, 0x00, 0x00, 0x01, 0x01, 0x00, 0x00, 0x00,
  0x0a, 0x00, 0x00, 0x00, 0x03, 0x00, 0x00, 0x00, 0x00, 0x00, 0x00, 0x00,
  0x06, 0x00, 0x00, 0x00, 0x08, 0x00, 0x00, 0x00, 0x00, 0x00, 0x0a, 0x00,
  0x0c, 0x00, 0x07, 0x00, 0x00, 0x00, 0x08, 0x00, 0x0a, 0x00, 0x00, 0x00,
  0x00, 0x00, 0x00, 0x03, 0x01, 0x00, 0x00, 0x00, 0x5a, 0xd5, 0xff, 0xff,
  0x10, 0x00, 0x00, 0x00, 0x0b, 0x00, 0x00, 0x00, 0x1c, 0x00, 0x00, 0x00,
  0x28, 0x00, 0x00, 0x00, 0x04, 0x00, 0x00, 0x00, 0x01, 0x00, 0x00, 0x00,
  0x40, 0x00, 0x00, 0x00, 0x03, 0x00, 0x00, 0x00, 0x08, 0x00, 0x00, 0x00,
  0x0b, 0x00, 0x00, 0x00, 0x74, 0x66, 0x6c, 0x2e, 0x63, 0x6f, 0x6e, 0x76,
  0x5f, 0x32, 0x64, 0x00, 0x44, 0xd5, 0xff, 0xff, 0x3a, 0xd6, 0xff, 0xff,
  0x04, 0x00, 0x00, 0x00, 0x40, 0x00, 0x00, 0x00, 0x90, 0x36, 0x26, 0x3c,
  0x2f, 0xe5, 0x1b, 0x3d, 0x1a, 0x79, 0x94, 0xbd, 0x45, 0x03, 0x89, 0x3f,
  0x07, 0x23, 0x25, 0x3f, 0x52, 0x29, 0x86, 0x3e, 0x67, 0xa1, 0x3c, 0x3e,
  0x17, 0x0b, 0xce, 0xbe, 0x08, 0x95, 0x15, 0x3f, 0xa4, 0x7d, 0xf9, 0x3e,
  0xaa, 0x78, 0x89, 0x40, 0x46, 0x15, 0x3b, 0xbe, 0x94, 0xb8, 0x29, 0xbf,
  0x59, 0x72, 0xe5, 0x3f, 0x9c, 0x7f, 0x69, 0xbe, 0x04, 0x6c, 0x1d, 0x3c,
  0xe2, 0xd5, 0xff, 0xff, 0x10, 0x00, 0x00, 0x00, 0x0a, 0x00, 0x00, 0x00,
  0x10, 0x00, 0x00, 0x00, 0x20, 0x00, 0x00, 0x00, 0x01, 0x00, 0x00, 0x00,
  0x10, 0x00, 0x00, 0x00, 0x0d, 0x00, 0x00, 0x00, 0x73, 0x74, 0x64, 0x2e,
  0x63, 0x6f, 0x6e, 0x73, 0x74, 0x61, 0x6e, 0x74, 0x31, 0x00, 0x00, 0x00,
  0xc4, 0xd5, 0xff, 0xff, 0xba, 0xd6, 0xff, 0xff, 0x04, 0x00, 0x00, 0x00,
  0x20, 0x00, 0x00, 0x00, 0xfb, 0x07, 0x5b, 0xbf, 0x27, 0xc5, 0xbe, 0xbf,
  0xe5, 0xce, 0xb9, 0xbf, 0xca, 0xa5, 0xe8, 0xbf, 0x77, 0x71, 0x76, 0xbf,
  0x70, 0x13, 0xea, 0x3d, 0x8f, 0x32, 0xa2, 0xbf, 0xf7, 0x97, 0xbd, 0xbf,
  0x42, 0xd6, 0xff, 0xff, 0x10, 0x00, 0x00, 0x00, 0x09, 0x00, 0x00, 0x00,
  0x10, 0x00, 0x00, 0x00, 0x20, 0x00, 0x00, 0x00, 0x01, 0x00, 0x00, 0x00,
  0x08, 0x00, 0x00, 0x00, 0x0c, 0x00, 0x00, 0x00, 0x73, 0x74, 0x64, 0x2e,
  0x63, 0x6f, 0x6e, 0x73, 0x74, 0x61, 0x6e, 0x74, 0x00, 0x00, 0x00, 0x00,
  0x24, 0xd6, 0xff, 0xff, 0x1a, 0xd7, 0xff, 0xff, 0x04, 0x00, 0x00, 0x00,
  0x00, 0x08, 0x00, 0x00, 0xf2, 0x34, 0x2e, 0xbe, 0x3d, 0x9c, 0xe0, 0xbe,
  0x56, 0xa4, 0x4c, 0xbe, 0x27, 0xa3, 0xb7, 0xbd, 0xd6, 0x26, 0x7d, 0xbd,
  0xfc, 0x11, 0x9b, 0xbe, 0xbb, 0x4d, 0x9a, 0xbe, 0xd6, 0x06, 0x19, 0xbf,
  0x92, 0x83, 0x95, 0xbe, 0x0b, 0x51, 0x88, 0x3d, 0xbd, 0xd4, 0x43, 0x3d,
  0xa7, 0x19, 0x91, 0x3d, 0x53, 0x8b, 0x00, 0xbd, 0xfa, 0xc8, 0x45, 0xbe,
  0x16, 0x33, 0x1a, 0xbf, 0x31, 0x2e, 0x35, 0x3e, 0xc4, 0x48, 0xd7, 0xbe,
  0xe6, 0x5d, 0xc3, 0xbe, 0x00, 0xd4, 0x0a, 0xbd, 0x92, 0xb7, 0x8a, 0x3d,
  0x9a, 0x79, 0x15, 0x3e, 0x99, 0x58, 0x15, 0xbe, 0xfc, 0x0e, 0xa4, 0xbe,
  0x46, 0x26, 0x19, 0xbf, 0xc0, 0xc6, 0x15, 0xbe, 0xca, 0x33, 0xdc, 0x3d,
  0xbd, 0xb9, 0x2e, 0x3d, 0x7a, 0x72, 0x18, 0xbb, 0x46, 0x39, 0x51, 0x3d,
  0x04, 0xd1, 0x8a, 0x3a, 0x65, 0x03, 0x04, 0x3c, 0x19, 0x37, 0xd2, 0x3c,
  0x8b, 0xae, 0x56, 0xbe, 0xba, 0x5e, 0xf8, 0x3c, 0x11, 0x45, 0xd2, 0xbe,
  0xd4, 0xdd, 0xfd, 0x3d, 0xef, 0x79, 0xb4, 0x3d, 0xfe, 0x78, 0xf3, 0x3e,
  0x47, 0x23, 0xf9, 0x3d, 0x3e, 0x22, 0x18, 0x3e, 0x21, 0xc1, 0x6b, 0xbf,
  0x1a, 0x94, 0x90, 0xbd, 0xb1, 0x87, 0xff, 0xbe, 0xa4, 0xe6, 0xb5, 0x3c,
  0x8d, 0xab, 0x85, 0xbd, 0x48, 0xde, 0x76, 0xbe, 0x18, 0xd9, 0xd0, 0xbe,
  0xe5, 0x70, 0xfb, 0x3d, 0x06, 0x84, 0x40, 0xbf, 0x75, 0x5e, 0x85, 0x3e,
  0xea, 0x73, 0xa3, 0xbe, 0x2c, 0xdb, 0x8d, 0xbd, 0x0d, 0x9c, 0xdf, 0xbd,
  0xbd, 0x87, 0xb9, 0xbe, 0xda, 0x30, 0xcb, 0xbe, 0x37, 0x92, 0x0b, 0xbb,
  0x7f, 0x88, 0xd3, 0x3d, 0x3b, 0x95, 0x2a, 0x3e, 0x17, 0xb4, 0x23, 0xbc,
  0x0c, 0xbb, 0xc9, 0xbd, 0x81, 0xf9, 0x3a, 0xbe, 0x4b, 0xb6, 0x79, 0xbe,
  0x4e, 0xa5, 0x04, 0xbe, 0x09, 0xd1, 0x4a, 0x3c, 0x5c, 0x8f, 0x65, 0xbd,
  0xe6, 0xd5, 0x6e, 0xbe, 0x5e, 0x7e, 0x8c, 0xbd, 0x64, 0xfc, 0x43, 0xbe,
  0x1a, 0x86, 0x88, 0xbd, 0xd1, 0xd5, 0x14, 0xbe, 0x3c, 0xf9, 0x5b, 0x3e,
  0xf4, 0x64, 0x7d, 0x3d, 0xf0, 0xc2, 0xdf, 0xbd, 0x98, 0x20, 0xdf, 0xb9,
  0xa0, 0xfc, 0xc9, 0xbd, 0x20, 0xfc, 0xfe, 0xbd, 0xa8, 0x4a, 0x29, 0xbe,
  0x6a, 0x2b, 0x00, 0xbe, 0xc1, 0x15, 0xd9, 0x3e, 0x22, 0x46, 0xb2, 0xbe,
  0x07, 0xc4, 0x90, 0xbd, 0xdf, 0xe8, 0x1b, 0x3e, 0x2a, 0xc3, 0xd7, 0x3d,
  0xea, 0x4c, 0xce, 0x3d, 0x08, 0xf7, 0xa9, 0x3d, 0xc4, 0x35, 0x8e, 0xbe,
  0xa4, 0xd0, 0x75, 0xbe, 0xe5, 0x8d, 0x4c, 0x3d, 0x34, 0x83, 0x27, 0xbe,
  0x72, 0x31, 0x0f, 0xbe, 0xab, 0x57, 0x49, 0xbd, 0x68, 0x48, 0xf0, 0xbb,
  0xb4, 0xf6, 0xbb, 0xbc, 0x97, 0x35, 0xc4, 0xbe, 0xe1, 0x1c, 0x81, 0xbe,
  0x81, 0xbe, 0xb3, 0x3d, 0xf1, 0xfc, 0xdc, 0xbd, 0xd9, 0x79, 0xd1, 0x3e,
  0x71, 0xb9, 0xd0, 0xbd, 0x07, 0xa5, 0x46, 0xbe, 0x62, 0x97, 0xb0, 0xbd,
  0x48, 0x73, 0x1d, 0xbe, 0x92, 0xa5, 0x16, 0x3d, 0x51, 0xdd, 0x62, 0x3e,
  0x05, 0xa2, 0x3a, 0xbd, 0x5d, 0x8b, 0xce, 0xbd, 0xbd, 0x03, 0x98, 0xbd,
  0xe1, 0x9e, 0x86, 0xbe, 0x96, 0xcd, 0x9f, 0xbd, 0xab, 0x1a, 0x1b, 0xbe,
  0xc0, 0x16, 0x17, 0xbe, 0x2d, 0x80, 0x68, 0xbe, 0x3a, 0xe5, 0x93, 0x3c,
  0xcf, 0x36, 0xea, 0x3d, 0x52, 0x43, 0x06, 0xbc, 0xfb, 0xfe, 0x59, 0xbe,
  0x87, 0xdc, 0x65, 0x3e, 0xfc, 0x03, 0xb8, 0xbd, 0x19, 0xaa, 0x9b, 0xbd,
  0x72, 0x27, 0x9e, 0xbe, 0xf8, 0x4f, 0xb7, 0x3c, 0xba, 0xe6, 0x21, 0x3e,
  0x6c, 0xfb, 0x0f, 0x3e, 0x4d, 0xef, 0x0c, 0xbe, 0xe1, 0xe2, 0xcc, 0x3c,
  0x8c, 0x7b, 0x2c, 0x3c, 0x64, 0x3c, 0x83, 0x3c, 0xbd, 0x7c, 0x21, 0xbe,
  0x49, 0xcc, 0x3a, 0xbf, 0x38, 0xed, 0xae, 0xbd, 0x9d, 0xe7, 0xe1, 0xbe,
  0xbc, 0x31, 0xb7, 0xbb, 0x46, 0x3a, 0x0b, 0xbe, 0xee, 0xd0, 0x6c, 0xbf,
  0x83, 0x28, 0x52, 0xbf, 0xcc, 0x93, 0x95, 0xbe, 0xf1, 0xd6, 0xa4, 0xbe,
  0xe3, 0xd1, 0x7f, 0x3e, 0x63, 0x9c, 0x0b, 0x3e, 0xda, 0x01, 0x29, 0x3d,
  0xee, 0x62, 0x0f, 0x3e, 0x6c, 0xdc, 0x58, 0xbe, 0x0d, 0xf0, 0x32, 0xbe,
  0xf1, 0x58, 0xb4, 0xbd, 0x7f, 0xd4, 0xd3, 0xbc, 0x12, 0xb8, 0x8e, 0xbe,
  0x71, 0x92, 0x11, 0x3e, 0xb3, 0xf4, 0x5a, 0x3d, 0xb0, 0x16, 0x11, 0x3e,
  0xc9, 0xc6, 0xc5, 0xbe, 0x55, 0x9d, 0x92, 0xbe, 0x10, 0x84, 0x62, 0xbe,
  0x3b, 0xe9, 0x01, 0xbc, 0x0e, 0xd2, 0x28, 0xbe, 0x4c, 0x09, 0x0c, 0x3e,
  0x79, 0xec, 0x30, 0x3d, 0x36, 0x65, 0x86, 0x3d, 0xc8, 0x3a, 0xa1, 0xbe,
  0xbd, 0x96, 0x8a, 0xbd, 0x87, 0x13, 0x53, 0xbe, 0x5e, 0xdc, 0xdf, 0xbe,
  0x00, 0x9b, 0xc3, 0x3e, 0xc5, 0xd3, 0x48, 0xbf, 0x00, 0x82, 0x14, 0x3c,
  0xfc, 0x33, 0x75, 0xbd, 0xec, 0xc3, 0xbb, 0xbe, 0x5f, 0xcc, 0xdf, 0xbe,
  0x0d, 0x85, 0x88, 0x3b, 0xb8, 0x3a, 0x92, 0xbf, 0x45, 0xea, 0x8a, 0xbe,
  0xc4, 0xb8, 0x64, 0xbe, 0x79, 0x61, 0x8e, 0x3d, 0x0d, 0xb2, 0x03, 0x3d,
  0xaa, 0xc4, 0x3b, 0xbf, 0x58, 0x9d, 0xe7, 0xbe, 0x20, 0x34, 0x40, 0x3e,
  0xb5, 0x49, 0xbb, 0xbd, 0x70, 0x41, 0x07, 0x3e, 0x5c, 0x48, 0x9b, 0xbe,
  0xdd, 0x9d, 0xf0, 0xbc, 0x78, 0xa5, 0x17, 0x3d, 0x1b, 0x3e, 0xf9, 0xbe,
  0x8e, 0x65, 0x4e, 0xbe, 0x6e, 0x2a, 0x2c, 0xbe, 0x34, 0x45, 0xbf, 0x3d,
  0xa5, 0x23, 0x91, 0xbc, 0x27, 0x14, 0x42, 0xbe, 0x25, 0xf8, 0x5b, 0x3c,
  0xd9, 0xf5, 0x0d, 0x3d, 0xf3, 0xa3, 0xa1, 0xbe, 0x03, 0xdd, 0x2e, 0xbe,
  0x70, 0x3f, 0x7d, 0x3c, 0xd7, 0xba, 0x03, 0xbd, 0x9e, 0xfa, 0x01, 0xbf,
  0x65, 0x40, 0x4c, 0xbc, 0x77, 0xd0, 0xa2, 0xbe, 0x13, 0x95, 0x7c, 0xbc,
  0xe2, 0xee, 0x47, 0xbe, 0xce, 0x19, 0x8d, 0xbe, 0x66, 0xd4, 0x97, 0xbe,
  0x38, 0x08, 0x4c, 0xbe, 0x6e, 0x3a, 0xb3, 0xbe, 0x85, 0x98, 0x0a, 0xbe,
  0xb3, 0x7b, 0x82, 0xbe, 0x7b, 0xac, 0xdb, 0xbd, 0x3e, 0x2f, 0x5b, 0xbe,
  0xfa, 0x84, 0x7b, 0x3e, 0x78, 0x68, 0x9b, 0x3e, 0x8c, 0x41, 0x9f, 0xbe,
  0x28, 0x48, 0xbe, 0x3e, 0xb3, 0x43, 0x6f, 0xbe, 0xd3, 0xa7, 0xad, 0xbd,
  0xae, 0x28, 0x27, 0xbe, 0x92, 0x48, 0xd1, 0xbe, 0x1f, 0x53, 0x09, 0x3e,
  0xd6, 0xb1, 0x89, 0x3d, 0xca, 0x6a, 0x11, 0x3e, 0x36, 0x15, 0x0c, 0x3e,
  0x8c, 0xbe, 0xd4, 0x3d, 0x71, 0x33, 0x89, 0xbd, 0xa0, 0x7d, 0x47, 0x3d,
  0x7e, 0x11, 0xd3, 0x3d, 0xb9, 0x16, 0x2d, 0xbd, 0x60, 0xdf, 0xb0, 0xbe,
  0x5b, 0x23, 0xaf, 0xbe, 0x22, 0x4e, 0x4a, 0x3d, 0x04, 0x7c, 0x7d, 0x3e,
  0x88, 0x0b, 0x32, 0xbd, 0x19, 0xaa, 0x10, 0xbb, 0x80, 0x42, 0xff, 0xbd,
  0xf9, 0x06, 0x97, 0x3e, 0xe7, 0x5d, 0x87, 0x3d, 0x7d, 0x52, 0x59, 0xbf,
  0xc3, 0xc0, 0x4f, 0x3e, 0xf4, 0x55, 0x43, 0xbe, 0x50, 0x8c, 0x21, 0xbd,
  0x9f, 0x07, 0x56, 0xbe, 0x43, 0x45, 0x11, 0xbf, 0x34, 0x20, 0x78, 0x3c,
  0x51, 0xf8, 0xfd, 0x3d, 0x14, 0x75, 0x84, 0xbe, 0x3c, 0xf8, 0x62, 0x3e,
  0xaa, 0x54, 0xa5, 0xbd, 0xcf, 0xb9, 0xb2, 0xbc, 0xbc, 0x43, 0x98, 0xbc,
  0x36, 0x10, 0x1a, 0xbe, 0xa5, 0x49, 0xd5, 0x3e, 0x65, 0xe6, 0xdc, 0xbd,
  0x81, 0x20, 0xc2, 0xbd, 0xa4, 0x75, 0xe6, 0x3a, 0x94, 0x9c, 0x97, 0xbb,
  0x5a, 0x7e, 0x72, 0x3b, 0x74, 0x83, 0x7e, 0x3d, 0xee, 0xeb, 0xcb, 0x3d,
  0x38, 0x21, 0xa7, 0x3d, 0x56, 0x24, 0x87, 0x3e, 0x45, 0xad, 0x0b, 0xbd,
  0x8b, 0x54, 0x5f, 0xbe, 0x62, 0xa9, 0xad, 0x3e, 0xf2, 0x19, 0x2a, 0xbd,
  0x4f, 0xb7, 0xe0, 0xbd, 0xbc, 0x5f, 0x84, 0xbd, 0x96, 0xa9, 0x1d, 0xbe,
  0xbb, 0x02, 0xcf, 0xbd, 0x9c, 0xc3, 0x1d, 0xbd, 0x9a, 0x4a, 0xda, 0xbd,
  0xd4, 0x51, 0x44, 0x3e, 0xf6, 0xee, 0x1c, 0xbe, 0xc8, 0xb7, 0xc4, 0xbd,
  0x57, 0x1b, 0x64, 0xbd, 0x67, 0x2d, 0x3d, 0xbd, 0x4d, 0x72, 0x87, 0xbd,
  0x0e, 0x72, 0x0f, 0xbd, 0x16, 0x9f, 0x2a, 0x3d, 0x24, 0x15, 0x40, 0xbd,
  0x9c, 0xe4, 0xfa, 0xbd, 0x54, 0x02, 0x31, 0xbe, 0x7c, 0xf7, 0x00, 0x3d,
  0xf7, 0xf7, 0x50, 0x3d, 0x1b, 0x0b, 0x2b, 0xbd, 0xd8, 0x86, 0x0b, 0xbe,
  0xf1, 0x72, 0x14, 0x3d, 0xf1, 0x19, 0x1b, 0xbc, 0xe5, 0x4b, 0x0f, 0xbe,
  0x56, 0xa6, 0x3f, 0xbe, 0xc3, 0xd9, 0xc7, 0xbd, 0x05, 0xc0, 0xe0, 0x3d,
  0xfe, 0xe6, 0x11, 0xbd, 0x0d, 0x54, 0x91, 0xb9, 0x9c, 0x5a, 0xad, 0xbd,
  0x7a, 0x42, 0x4b, 0xbf, 0xdb, 0xef, 0xaf, 0xbe, 0x8c, 0xda, 0xe1, 0xbe,
  0x93, 0xa6, 0x35, 0xbf, 0xfa, 0x94, 0x21, 0xbe, 0xfd, 0x1c, 0x32, 0xbe,
  0xf6, 0xcf, 0xac, 0xbf, 0x21, 0xcc, 0x10, 0x3d, 0x12, 0xee, 0xb3, 0xbd,
  0xb2, 0x35, 0xee, 0x3c, 0x1d, 0x76, 0x34, 0xbd, 0xe6, 0xef, 0x3f, 0xbf,
  0x79, 0x12, 0x0b, 0xbf, 0x71, 0x8c, 0x22, 0x3d, 0xf3, 0xb1, 0xf6, 0xbe,
  0x04, 0xb0, 0xf4, 0xbd, 0x6f, 0x98, 0x16, 0x3e, 0xb4, 0x9b, 0xc8, 0x3c,
  0xf1, 0xde, 0x0e, 0x3d, 0xeb, 0x0e, 0x44, 0xbf, 0x3d, 0xb3, 0x08, 0xbf,
  0x96, 0x61, 0xc9, 0x3c, 0x53, 0x69, 0x0c, 0xbe, 0x04, 0xb4, 0x47, 0x3e,
  0x13, 0xaf, 0x54, 0xbe, 0xc2, 0x64, 0xd8, 0x3d, 0x32, 0x10, 0xbc, 0x3d,
  0xac, 0x36, 0x56, 0xbe, 0xd9, 0x72, 0x6c, 0xbc, 0x4a, 0xc7, 0x3d, 0x3d,
  0xd5, 0x59, 0x68, 0xbf, 0x77, 0xf9, 0x09, 0x3e, 0x82, 0x2a, 0x1e, 0xbf,
  0x1b, 0x99, 0x30, 0x3b, 0xb0, 0x6d, 0x5a, 0x3c, 0x45, 0xc3, 0x08, 0xbc,
  0x00, 0xee, 0x66, 0xbe, 0xaf, 0xf3, 0x1a, 0x3e, 0x1b, 0x16, 0xb6, 0xbf,
  0xad, 0xed, 0x9c, 0x3d, 0xce, 0x71, 0x20, 0xbf, 0x81, 0xdc, 0x3f, 0xbb,
  0x4f, 0x97, 0x02, 0x3e, 0x03, 0x91, 0x2e, 0xbf, 0x73, 0x77, 0x14, 0xbf,
  0x2d, 0xab, 0x28, 0xbd, 0xd3, 0xda, 0xa0, 0xbd, 0x52, 0xa0, 0xc5, 0x3b,
  0x7d, 0xfa, 0x3c, 0xbe, 0xc2, 0x57, 0xc3, 0xbe, 0x90, 0x30, 0x10, 0xbf,
  0xbe, 0x91, 0xd9, 0x3c, 0xe0, 0x22, 0xb3, 0xbe, 0xbd, 0xe5, 0x22, 0xbe,
  0x74, 0xe5, 0x87, 0x3b, 0x50, 0x12, 0x5d, 0xbe, 0x13, 0xd5, 0x97, 0xbe,
  0x86, 0xd5, 0x79, 0xbe, 0x2b, 0x19, 0x0f, 0xbf, 0x6e, 0x4c, 0xc4, 0x3e,
  0x63, 0x6c, 0x7e, 0xbe, 0xb5, 0x8f, 0xba, 0xbe, 0x3f, 0x43, 0xa3, 0xbc,
  0x4a, 0x9e, 0xe3, 0xbd, 0xc5, 0x51, 0xc7, 0xbc, 0x74, 0x64, 0x9e, 0xbd,
  0x91, 0xac, 0xde, 0xbc, 0xbe, 0x3b, 0x49, 0x3c, 0x03, 0x62, 0x98, 0x3c,
  0x7a, 0xea, 0xbf, 0x3e, 0x04, 0x7c, 0x14, 0xbd, 0xae, 0x8b, 0x8c, 0x3a,
  0x39, 0x53, 0x98, 0xbc, 0x2c, 0x9f, 0xdf, 0xbd, 0x51, 0x79, 0x0a, 0xbd,
  0x80, 0x0d, 0x8c, 0xbb, 0x2a, 0xe2, 0x8d, 0xbc, 0xee, 0x7a, 0xf6, 0x3d,
  0xb0, 0xe8, 0x02, 0xbd, 0xef, 0x73, 0x07, 0x3f, 0x51, 0x86, 0x82, 0xbc,
  0x3d, 0x74, 0xb2, 0xbd, 0x2a, 0x6e, 0xeb, 0xbc, 0x35, 0x98, 0x57, 0x3c,
  0x9e, 0xab, 0xc6, 0xbc, 0x71, 0xda, 0x52, 0x3e, 0x3f, 0x7c, 0xcb, 0xbc,
  0x61, 0x7d, 0xf1, 0x3e, 0xda, 0x94, 0x90, 0xbc, 0x3f, 0x25, 0x8c, 0xbd,
  0x03, 0x38, 0x9d, 0xbb, 0xdb, 0xd8, 0x8a, 0x3c, 0x05, 0x2c, 0xf9, 0xbc,
  0x7f, 0x49, 0x4a, 0x3e, 0xe6, 0x84, 0xcd, 0xb9, 0x2d, 0x4d, 0x66, 0xbe,
  0x9d, 0xe2, 0x7c, 0x3c, 0x12, 0xcc, 0xf8, 0xbe, 0x67, 0xc0, 0x27, 0xbe,
  0xaa, 0x5c, 0x75, 0xbe, 0x5e, 0xb0, 0x7e, 0x3e, 0xd5, 0x66, 0x24, 0x3d,
  0x06, 0x7a, 0xda, 0xbe, 0x57, 0xbf, 0x38, 0xbc, 0xba, 0x84, 0x09, 0xbf,
  0x16, 0x25, 0x48, 0xbf, 0xe0, 0x78, 0x09, 0xbf, 0x13, 0x68, 0x43, 0xbf,
  0xd5, 0xb3, 0x24, 0x3e, 0x8e, 0x5f, 0x55, 0x3e, 0x50, 0x2f, 0x9c, 0x3c,
  0x30, 0xd4, 0x58, 0x3e, 0x8f, 0xed, 0x00, 0x3d, 0x01, 0x85, 0x59, 0xbd,
  0x08, 0x10, 0x1d, 0xbe, 0xfa, 0x22, 0x43, 0x3d, 0x82, 0xd8, 0x40, 0x3e,
  0xe9, 0x0a, 0xae, 0xbe, 0x5f, 0x36, 0x53, 0x3e, 0x29, 0x49, 0xba, 0x3d,
  0x19, 0xd6, 0xb9, 0x3d, 0xa4, 0x64, 0x01, 0xbd, 0x07, 0x4b, 0xad, 0xbb,
  0x6d, 0x87, 0xf8, 0x3d, 0x7b, 0x7f, 0x97, 0x3e, 0xd6, 0x0a, 0x8b, 0xbd,
  0xd8, 0x0b, 0xe8, 0x3c, 0x19, 0x57, 0x20, 0xbe, 0xd3, 0xeb, 0x22, 0x3c,
  0xfd, 0x98, 0xa9, 0xbe, 0xd8, 0x13, 0xc0, 0xbc, 0x4f, 0x2c, 0xd2, 0xbd,
  0x0b, 0x0c, 0x16, 0xbe, 0xcf, 0x97, 0x4a, 0xbe, 0xd1, 0x36, 0x0a, 0x3e,
  0x2a, 0x34, 0xbe, 0xbd, 0x32, 0x64, 0xef, 0xbb, 0xa9, 0xbe, 0x23, 0xbe,
  0x0a, 0xf7, 0x41, 0x3c, 0xbf, 0x61, 0x07, 0xbd, 0x99, 0x99, 0x38, 0xbe,
  0xa3, 0x0d, 0xbd, 0xbd, 0x51, 0xe4, 0xc1, 0x3b, 0xae, 0xa2, 0xcb, 0xbe,
  0xbf, 0x06, 0x89, 0xbb, 0xec, 0x9d, 0x3a, 0xbe, 0x83, 0xfa, 0x7e, 0xbc,
  0xb7, 0xd4, 0xcc, 0xbd, 0x43, 0xbf, 0x66, 0xbd, 0x23, 0x89, 0xe5, 0x3d,
  0x32, 0xb6, 0x66, 0xbd, 0x9f, 0xce, 0x57, 0xbe, 0xe8, 0xd6, 0x5a, 0x3b,
  0xf5, 0xba, 0x6b, 0xbe, 0x50, 0x75, 0x17, 0xbe, 0x9c, 0xb3, 0x0c, 0xbe,
  0x37, 0x23, 0x55, 0x3d, 0xe8, 0x77, 0x1d, 0x3f, 0x04, 0x9c, 0x45, 0xbe,
  0x6c, 0xec, 0x77, 0x3e, 0x07, 0x9d, 0x83, 0xbe, 0x36, 0x68, 0x11, 0x3e,
  0x3f, 0x47, 0x1e, 0xbd, 0x0b, 0x12, 0x97, 0xbd, 0xbe, 0x52, 0xf0, 0x3e,
  0x48, 0xc1, 0x14, 0x3e, 0x7f, 0x44, 0x34, 0xbe, 0xea, 0x9c, 0xae, 0x3d,
  0x77, 0xb8, 0x8e, 0xbe, 0x36, 0xf7, 0xc3, 0x3d, 0x5b, 0x6a, 0x31, 0xbb,
  0x49, 0xd9, 0x7d, 0xbc, 0xa7, 0x4d, 0x8e, 0xbd, 0x06, 0xf7, 0x98, 0x3d,
  0x9e, 0xbb, 0xf0, 0xbe, 0x6e, 0x11, 0x5b, 0xbe, 0x8b, 0x52, 0x56, 0x3d,
  0xfa, 0xa3, 0xa7, 0xbc, 0x55, 0xef, 0x9b, 0xbd, 0xa8, 0x6e, 0xd1, 0xbc,
  0xdb, 0x16, 0x8c, 0xbe, 0x8c, 0x0c, 0x11, 0x3e, 0x0d, 0xdc, 0xb6, 0xbe,
  0x20, 0x71, 0xc4, 0x3e, 0xd8, 0x45, 0x12, 0xbe, 0xc8, 0x35, 0xc1, 0xbc,
  0x1a, 0x21, 0xe0, 0xbd, 0x89, 0x33, 0x22, 0xbe, 0x8e, 0xea, 0x40, 0xbd,
  0xc6, 0xb4, 0x8b, 0x3c, 0x1d, 0xb6, 0x18, 0x3e, 0x32, 0x75, 0x89, 0x3d,
  0x39, 0x3a, 0xf8, 0xbc, 0x42, 0x33, 0x2d, 0xbf, 0x08, 0xbc, 0xb7, 0xbe,
  0x0a, 0x54, 0xc0, 0xbd, 0x59, 0x72, 0xf1, 0x3e, 0xbe, 0xdb, 0xa9, 0xbd,
  0xb7, 0x87, 0x00, 0xbe, 0x9b, 0x31, 0xbe, 0x3e, 0xf6, 0xd2, 0x75, 0xbe,
  0xce, 0xc0, 0x3e, 0xbf, 0x55, 0xae, 0xe4, 0xbe, 0x5b, 0x33, 0x25, 0xbe,
  0x59, 0x4e, 0x89, 0x3e, 0xc4, 0x57, 0x84, 0x3e, 0x95, 0x28, 0xfa, 0x3c,
  0x26, 0xe9, 0x8a, 0x3d, 0x17, 0x2b, 0xea, 0xbd, 0x07, 0x8e, 0x01, 0xbf,
  0xcd, 0xac, 0x94, 0xbe, 0xf8, 0xfb, 0x22, 0x3d, 0x30, 0x80, 0xc7, 0x3e,
  0x37, 0x85, 0xe2, 0x3c, 0x55, 0x3d, 0xe0, 0x3d, 0xd7, 0xdf, 0xec, 0x3d,
  0xdf, 0x46, 0xd1, 0xbc, 0x5c, 0xf0, 0xc0, 0xbe, 0x6c, 0x60, 0x2c, 0xbe,
  0xa3, 0x12, 0x3e, 0x3d, 0xde, 0x5f, 0x12, 0x3e, 0x87, 0x4a, 0x68, 0x3d,
  0x82, 0xde, 0xff, 0xff, 0x10, 0x00, 0x00, 0x00, 0x08, 0x00, 0x00, 0x00,
  0x1c, 0x00, 0x00, 0x00, 0x38, 0x00, 0x00, 0x00, 0x04, 0x00, 0x00, 0x00,
  0x10, 0x00, 0x00, 0x00, 0x04, 0x00, 0x00, 0x00, 0x01, 0x00, 0x00, 0x00,
  0x08, 0x00, 0x00, 0x00, 0x1a, 0x00, 0x00, 0x00, 0x73, 0x65, 0x71, 0x75,
  0x65, 0x6e, 0x74, 0x69, 0x61, 0x6c, 0x2f, 0x63, 0x6f, 0x6e, 0x76, 0x32,
  0x64, 0x5f, 0x31, 0x2f, 0x43, 0x6f, 0x6e, 0x76, 0x32, 0x44, 0x00, 0x00,
  0x7c, 0xde, 0xff, 0xff, 0x72, 0xdf, 0xff, 0xff, 0x04, 0x00, 0x00, 0x00,
  0x80, 0x01, 0x00, 0x00, 0xcf, 0x97, 0x0c, 0xbf, 0x46, 0x1d, 0x09, 0x3e,
  0xf7, 0xe5, 0x0e, 0xbe, 0x90, 0x41, 0x8c, 0x3e, 0xf9, 0x8a, 0x4e, 0xbe,
  0x50, 0xfc, 0x0d, 0x3a, 0xb3, 0xec, 0x2d, 0xbe, 0x2e, 0xfb, 0xfb, 0xbd,
  0xc7, 0x71, 0x18, 0xbd, 0xfc, 0xc8, 0x90, 0xbe, 0x88, 0x75, 0x3f, 0x3d,
  0xce, 0x58, 0xbc, 0xbd, 0x78, 0xe2, 0x06, 0xbe, 0xff, 0xcc, 0x0d, 0x3f,
  0x56, 0xf0, 0x30, 0xbe, 0x5e, 0xa1, 0x46, 0x3e, 0x71, 0x1b, 0x72, 0x3d,
  0xd3, 0x3c, 0xcd, 0x3d, 0x8c, 0xad, 0xc8, 0xbd, 0xe5, 0xee, 0x06, 0xbf,
  0xc1, 0x8e, 0x21, 0x3d, 0x32, 0xa7, 0xea, 0xbc, 0x98, 0xe1, 0xc3, 0xbd,
  0xf4, 0x9b, 0x59, 0x3a, 0x75, 0x0e, 0x06, 0x3e, 0xb2, 0x51, 0xb8, 0x3c,
  0x08, 0xf9, 0x17, 0xbe, 0xe2, 0xe5, 0xd4, 0x3d, 0x14, 0x50, 0xe8, 0xbd,
  0x54, 0xd5, 0x4f, 0xbe, 0xc1, 0x04, 0xee, 0x3d, 0x18, 0x51, 0xa6, 0x3c,
  0x18, 0xfb, 0xe2, 0xbd, 0x0f, 0x70, 0x03, 0x3d, 0xad, 0xab, 0x9e, 0xbd,
  0xb1, 0xa9, 0xf5, 0xbd, 0x75, 0x62, 0xac, 0xbd, 0x84, 0x0e, 0x23, 0xbb,
  0xc1, 0x37, 0xb0, 0x3d, 0x22, 0x3a, 0x7f, 0xbd, 0x95, 0x45, 0x9b, 0xbc,
  0xdc, 0xbe, 0x83, 0x3d, 0x4c, 0x0a, 0x19, 0xbd, 0x1b, 0x84, 0xb1, 0xbc,
  0x5f, 0x62, 0x5e, 0x3d, 0x46, 0x97, 0xbb, 0xbc, 0x92, 0xd7, 0xae, 0xba,
  0x9c, 0x93, 0x4e, 0x3d, 0x55, 0x94, 0xfc, 0xbd, 0x94, 0xd2, 0xa8, 0x3c,
  0x0c, 0xce, 0x60, 0x3d, 0xb6, 0x9a, 0xe5, 0xbd, 0x99, 0xe0, 0xd1, 0x3c,
  0xb6, 0x7d, 0x62, 0x3c, 0x5c, 0x5b, 0xce, 0xbd, 0xfe, 0x64, 0x06, 0x3d,
  0x05, 0xd3, 0x1d, 0xbd, 0xd5, 0x93, 0xcf, 0xbd, 0xe4, 0x2c, 0x54, 0x3d,
  0x53, 0x7f, 0xe0, 0xbb, 0x94, 0xb8, 0x34, 0x3d, 0x1c, 0x45, 0xae, 0xbe,
  0xea, 0x6f, 0x2d, 0xbd, 0xe9, 0x51, 0xfb, 0xbc, 0xa7, 0xc6, 0x88, 0xbd,
  0x3f, 0x39, 0x01, 0xbe, 0x17, 0x41, 0x87, 0xbe, 0x6b, 0x87, 0x9e, 0xbd,
  0x9e, 0x56, 0x5d, 0x3e, 0x4c, 0x87, 0x36, 0xbd, 0x0d, 0x53, 0xb5, 0x3d,
  0x42, 0x29, 0xf0, 0xbd, 0x7e, 0x3a, 0x61, 0x3c, 0xa0, 0x3e, 0x5c, 0x3e,
  0x5a, 0xa6, 0x33, 0x3e, 0x8e, 0x06, 0xa1, 0xbe, 0x0b, 0xc7, 0xb5, 0xbe,
  0xa9, 0xf5, 0x00, 0x3e, 0xa5, 0xdc, 0xd2, 0xbd, 0xf1, 0x1d, 0x77, 0xbe,
  0x19, 0xa3, 0x8e, 0xbe, 0x2c, 0x92, 0xcc, 0x3e, 0x88, 0x67, 0x6e, 0x3e,
  0x6c, 0xc2, 0x39, 0xbe, 0xd5, 0x1a, 0xdb, 0xbe, 0x6a, 0xf1, 0x5f, 0xbe,
  0x7d, 0x76, 0x03, 0x3c, 0x3f, 0xfc, 0x53, 0xbe, 0x8a, 0xcc, 0xb2, 0x3c,
  0x46, 0x03, 0x07, 0xbd, 0xc1, 0xbd, 0xc2, 0x3e, 0x4f, 0xfb, 0x10, 0x3d,
  0xd0, 0x5e, 0x03, 0x3e, 0xdc, 0x27, 0x88, 0x3e, 0xe9, 0x01, 0x1a, 0x3e,
  0x67, 0x59, 0xe3, 0xbd, 0x5a, 0xe0, 0xff, 0xff, 0x10, 0x00, 0x00, 0x00,
  0x07, 0x00, 0x00, 0x00, 0x1c, 0x00, 0x00, 0x00, 0x38, 0x00, 0x00, 0x00,
  0x04, 0x00, 0x00, 0x00, 0x08, 0x00, 0x00, 0x00, 0x04, 0x00, 0x00, 0x00,
  0x03, 0x00, 0x00, 0x00, 0x01, 0x00, 0x00, 0x00, 0x18, 0x00, 0x00, 0x00,
  0x73, 0x65, 0x71, 0x75, 0x65, 0x6e, 0x74, 0x69, 0x61, 0x6c, 0x2f, 0x63,
  0x6f, 0x6e, 0x76, 0x32, 0x64, 0x2f, 0x43, 0x6f, 0x6e, 0x76, 0x32, 0x44,
  0x00, 0x00, 0x00, 0x00, 0x54, 0xe0, 0xff, 0xff, 0x4a, 0xe1, 0xff, 0xff,
  0x04, 0x00, 0x00, 0x00, 0x40, 0x01, 0x00, 0x00, 0x36, 0x9c, 0x90, 0x3e,
  0x77, 0x3c, 0x54, 0x3d, 0x20, 0x9e, 0xac, 0x3e, 0xcf, 0x9b, 0xd7, 0x3d,
  0xb7, 0x58, 0xcd, 0xbd, 0xb8, 0x57, 0x41, 0xbe, 0x10, 0x16, 0x4b, 0x3e,
  0x02, 0x47, 0x5d, 0xbd, 0x5f, 0x99, 0xc1, 0x3d, 0x54, 0xb7, 0xd1, 0xbe,
  0xd2, 0xc1, 0x40, 0x3e, 0xa4, 0x63, 0x56, 0x3e, 0x9a, 0x65, 0x21, 0x3e,
  0x04, 0x5a, 0x59, 0x3d, 0x20, 0x51, 0xb3, 0x3d, 0x55, 0x52, 0x60, 0x3e,
  0x56, 0x3b, 0xa0, 0x3e, 0x79, 0x23, 0x2a, 0x3e, 0xc7, 0x57, 0x9d, 0x3e,
  0xf9, 0x3e, 0xd8, 0x3d, 0x02, 0xcb, 0x36, 0xbe, 0x68, 0x53, 0xd3, 0xbd,
  0x59, 0xee, 0xdc, 0x3d, 0x4f, 0xf1, 0xb5, 0xbd, 0x82, 0x11, 0x23, 0x3e,
  0x0a, 0xac, 0x5e, 0xbb, 0x74, 0x59, 0x3e, 0x3e, 0xe3, 0x24, 0x69, 0x3e,
  0x2e, 0x05, 0x24, 0x3e, 0xda, 0x94, 0x18, 0xbd, 0x37, 0xa4, 0x1a, 0x3e,
  0x1b, 0x4e, 0x63, 0x3e, 0x22, 0x5e, 0x2f, 0x3e, 0xdb, 0x2e, 0xc0, 0x3d,
  0x39, 0x7a, 0x73, 0xbd, 0x66, 0x2a, 0x9a, 0x3c, 0x6f, 0xa5, 0xa9, 0xbe,
  0xdb, 0x7e, 0x9e, 0xbe, 0x03, 0x01, 0x68, 0x3e, 0x4c, 0x24, 0xdf, 0xbd,
  0xe4, 0x7f, 0xb8, 0x3d, 0xb7, 0xa3, 0x08, 0xbf, 0x1a, 0x70, 0x75, 0x3e,
  0x62, 0x5d, 0x3b, 0x3e, 0x55, 0x0d, 0x8b, 0x3e, 0x4b, 0x97, 0xc2, 0x3d,
  0xa4, 0x4f, 0x1b, 0x3e, 0x79, 0x58, 0x33, 0x3e, 0xc1, 0xa2, 0x86, 0xbe,
  0xac, 0xe1, 0x9f, 0x3d, 0x98, 0x91, 0x65, 0xbe, 0xff, 0x93, 0x8b, 0x3c,
  0xc3, 0x57, 0xb5, 0xbf, 0x99, 0xda, 0x81, 0xbe, 0x10, 0xab, 0x38, 0x3e,
  0x8f, 0x4e, 0xa2, 0xbe, 0xca, 0xbb, 0xb7, 0x3d, 0x37, 0xe6, 0xbe, 0x3d,
  0xdd, 0xbf, 0x23, 0x3e, 0xce, 0x85, 0x86, 0x3e, 0xf5, 0x3d, 0xae, 0x3e,
  0x34, 0xa4, 0x39, 0x3d, 0x62, 0xfd, 0xec, 0x3d, 0x8a, 0x45, 0x54, 0x3e,
  0xd1, 0xd9, 0x01, 0x3e, 0x02, 0x5b, 0x38, 0x3e, 0xae, 0xca, 0xb8, 0x3e,
  0x0a, 0x23, 0x03, 0xbd, 0x09, 0xc6, 0x55, 0xbe, 0xf0, 0xa9, 0xb3, 0xbd,
  0xaf, 0xf9, 0x1d, 0x3d, 0x2e, 0x94, 0x42, 0xbe, 0xaa, 0x27, 0x5e, 0x3d,
  0xe3, 0xab, 0xfe, 0x3d, 0x0e, 0x10, 0x3d, 0x3e, 0xe1, 0xde, 0x38, 0x3e,
  0x42, 0xaf, 0x89, 0x3e, 0xc7, 0xb5, 0xd4, 0xbd, 0xb4, 0xb7, 0xb8, 0x3d,
  0xbc, 0x71, 0xa2, 0x3a, 0xf2, 0xe1, 0xff, 0xff, 0x10, 0x00, 0x00, 0x00,
  0x06, 0x00, 0x00, 0x00, 0x14, 0x00, 0x00, 0x00, 0x30, 0x00, 0x00, 0x00,
  0x02, 0x00, 0x00, 0x00, 0x05, 0x00, 0x00, 0x00, 0x10, 0x00, 0x00, 0x00,
  0x19, 0x00, 0x00, 0x00, 0x73, 0x65, 0x71, 0x75, 0x65, 0x6e, 0x74, 0x69,
  0x61, 0x6c, 0x2f, 0x64, 0x65, 0x6e, 0x73, 0x65, 0x5f, 0x31, 0x2f, 0x4d,
  0x61, 0x74, 0x4d, 0x75, 0x6c, 0x00, 0x00, 0x00, 0xe4, 0xe1, 0xff, 0xff,
  0xda, 0xe2, 0xff, 0xff, 0x04, 0x00, 0x00, 0x00, 0x00, 0x1c, 0x00, 0x00,
  0x73, 0x81, 0x93, 0x3b, 0xcc, 0xec, 0x6b, 0xbe, 0xf0, 0x40, 0x38, 0x3d,
  0x3e, 0x40, 0xb4, 0xbc, 0xd7, 0xd9, 0x82, 0xbe, 0xce, 0xc1, 0x36, 0xbe,
  0x3e, 0xbb, 0xe3, 0x3d, 0xb8, 0x09, 0x5f, 0x3d, 0xa6, 0xd0, 0xa1, 0xbd,
  0x2f, 0xe9, 0x85, 0x3d, 0x78, 0xcb, 0x9c, 0x3e, 0x15, 0xd3, 0x76, 0x3d,
  0x8a, 0x23, 0xd0, 0x3d, 0xeb, 0x21, 0x55, 0x3c, 0x01, 0xbf, 0x17, 0xbe,
  0xb9, 0x87, 0x33, 0xbd, 0x3d, 0x07, 0x3d, 0xbd, 0xc8, 0xd0, 0x63, 0xbe,
  0xf8, 0xce, 0x11, 0xbd, 0xab, 0x7d, 0xbb, 0x3b, 0x32, 0xd6, 0xd6, 0xbd,
  0x72, 0x2b, 0x29, 0xbe, 0x13, 0x03, 0xc4, 0xbc, 0x49, 0xea, 0x29, 0xbe,
  0x3f, 0xa6, 0x8e, 0xbe, 0x89, 0x09, 0xdf, 0xbd, 0x12, 0x14, 0x63, 0xbe,
  0x2c, 0x2d, 0x09, 0x3d, 0xaa, 0x3c, 0x07, 0x3e, 0xb2, 0xab, 0xbc, 0xbd,
  0xcb, 0x90, 0x75, 0xbd, 0x1c, 0xae, 0x2a, 0xbe, 0xc2, 0x73, 0xc7, 0x3c,
  0xb3, 0xda, 0x9d, 0x3d, 0x6e, 0xee, 0x3d, 0xbe, 0x7e, 0xa1, 0xbe, 0x3c,
  0x42, 0x48, 0x7d, 0xbd, 0x4b, 0x3f, 0x04, 0xbd, 0x2b, 0xe4, 0x5c, 0xbe,
  0xa3, 0x60, 0x88, 0xbe, 0xf5, 0xed, 0xe5, 0xbd, 0x75, 0xfb, 0x89, 0xbc,
  0x65, 0xf5, 0xdc, 0xbd, 0xa6, 0x8d, 0xcd, 0x3c, 0x94, 0x05, 0x3c, 0x3d,
  0x83, 0x3a, 0x41, 0xbe, 0xb1, 0x5d, 0x3d, 0xbe, 0xd7, 0x2d, 0xa9, 0xbe,
  0x0f, 0x6b, 0xeb, 0xbd, 0xe3, 0xf0, 0xe9, 0x3d, 0x6b, 0x09, 0xc0, 0x3d,
  0x4c, 0x78, 0x1b, 0xbd, 0xda, 0xec, 0x71, 0xbd, 0xae, 0x6e, 0x1c, 0xbe,
  0x39, 0xd1, 0xcb, 0x3d, 0xf0, 0xa9, 0xe1, 0xbe, 0x66, 0xc3, 0xa4, 0xbd,
  0x8d, 0xe8, 0x86, 0xbc, 0x0f, 0x10, 0x43, 0x3e, 0x12, 0x7c, 0x83, 0x3c,
  0xf2, 0x9a, 0xd2, 0xbd, 0xa1, 0x9b, 0x72, 0x3d, 0x85, 0x6a, 0x10, 0xbf,
  0xd0, 0x25, 0x0c, 0xbf, 0x4a, 0x4c, 0xa7, 0xbc, 0xf9, 0xce, 0x7e, 0xbe,
  0xde, 0xf9, 0x55, 0x3d, 0x9d, 0x78, 0x9e, 0xbc, 0xe1, 0x85, 0xcf, 0xbd,
  0x73, 0x82, 0xc2, 0xbd, 0xa7, 0x83, 0x87, 0x3e, 0x7c, 0x76, 0x91, 0xbd,
  0xc4, 0x47, 0x8e, 0xbd, 0x1b, 0xb0, 0x0c, 0xbe, 0x94, 0x1a, 0xa8, 0x3d,
  0x48, 0xb7, 0xa0, 0xbd, 0x3c, 0xe1, 0xe1, 0x3d, 0xcd, 0xc7, 0xfd, 0x3e,
  0x6f, 0x77, 0xdb, 0x3d, 0xf7, 0x1e, 0x88, 0xbd, 0x8a, 0x02, 0xb7, 0xbe,
  0xd4, 0xcb, 0xef, 0xbd, 0x2f, 0x60, 0x3f, 0xbe, 0x26, 0x10, 0x7a, 0xbb,
  0xc5, 0xca, 0x9c, 0x3d, 0x5d, 0xf1, 0x0a, 0xbe, 0x80, 0x00, 0x94, 0x3e,
  0x34, 0x0f, 0x65, 0x3d, 0x4c, 0xae, 0x48, 0xbe, 0x6a, 0x84, 0x10, 0xbe,
  0xa3, 0x29, 0x1f, 0xbd, 0x70, 0x92, 0xaa, 0x3d, 0x78, 0x2f, 0xba, 0x3d,
  0x92, 0x05, 0xa0, 0x3d, 0x66, 0x77, 0x2b, 0xbd, 0x34, 0x1e, 0xed, 0x3d,
  0xbf, 0xae, 0xbe, 0xbe, 0x4e, 0x3f, 0x95, 0xbd, 0xa6, 0x3a, 0x61, 0xbe,
  0x44, 0xc5, 0x19, 0xbd, 0xd6, 0xac, 0x4a, 0xba, 0x9c, 0xaa, 0x98, 0xbd,
  0x3c, 0xb9, 0xdd, 0x3c, 0x56, 0x14, 0xbe, 0xbe, 0xbd, 0x3f, 0xa4, 0x3c,
  0x77, 0xb3, 0xb6, 0x3c, 0xe5, 0x57, 0x81, 0xbe, 0x9d, 0x09, 0x2e, 0xbe,
  0xb6, 0x01, 0xa5, 0xbd, 0x60, 0x67, 0x8e, 0xbd, 0xba, 0xda, 0x05, 0xbd,
  0xbc, 0x5b, 0x6e, 0xbe, 0xf8, 0x01, 0x1d, 0x3e, 0x3a, 0x14, 0x71, 0x3c,
  0xa6, 0x63, 0x86, 0x3e, 0x98, 0xf0, 0x0c, 0x3e, 0x81, 0x22, 0x0a, 0x3e,
  0x7d, 0x3e, 0xf1, 0x3d, 0x37, 0x17, 0xbd, 0x3d, 0x0c, 0x2f, 0x05, 0x3e,
  0xce, 0x9b, 0x3e, 0x3e, 0x10, 0x5a, 0xd5, 0x3d, 0x33, 0x0c, 0xa3, 0x3e,
  0x85, 0xca, 0x02, 0xbd, 0x5b, 0x73, 0x5e, 0x3d, 0x40, 0x87, 0xe1, 0x3b,
  0x47, 0xce, 0x5e, 0xbc, 0xfa, 0xe7, 0xfa, 0x3d, 0x8e, 0x3e, 0xf0, 0x3d,
  0x28, 0x2c, 0x92, 0xbe, 0x52, 0x59, 0xa3, 0x3c, 0xc7, 0xfc, 0xac, 0xbd,
  0x89, 0x56, 0xff, 0xbc, 0xcb, 0x2d, 0x0a, 0xbe, 0x98, 0x2d, 0x9a, 0x3d,
  0x9c, 0x9a, 0x45, 0xbd, 0x90, 0x2b, 0x85, 0x3e, 0xe5, 0x28, 0x2c, 0x3d,
  0xb5, 0x58, 0x9d, 0xbe, 0xe7, 0xf7, 0x99, 0xbd, 0x71, 0xa6, 0x56, 0x3d,
  0xc2, 0xc7, 0xa9, 0x3e, 0x69, 0x30, 0x0d, 0xbe, 0xa8, 0x90, 0x81, 0x3e,
  0x23, 0xd0, 0x70, 0x3d, 0x71, 0xdf, 0xf5, 0x3d, 0xaf, 0x4b, 0x87, 0xbb,
  0x31, 0xc6, 0x47, 0xbd, 0xdf, 0xe3, 0x54, 0x3c, 0x01, 0x4d, 0x74, 0xbd,
  0xdb, 0xb1, 0xed, 0xbd, 0x46, 0xad, 0xc0, 0x3d, 0x0c, 0x5f, 0x28, 0x3e,
  0xca, 0x19, 0xfb, 0x3c, 0x1a, 0x13, 0xa1, 0xbe, 0x0c, 0x2b, 0xa3, 0xbd,
  0xde, 0xdd, 0x25, 0x3d, 0xfa, 0x01, 0xa3, 0xbc, 0x16, 0xa8, 0xa3, 0x3d,
  0x82, 0x8f, 0x33, 0x3e, 0x17, 0x17, 0xc7, 0xbd, 0x04, 0xdc, 0x52, 0x3d,
  0x74, 0xfe, 0x11, 0xbd, 0xe7, 0xc4, 0x9f, 0xbd, 0xf7, 0x29, 0xda, 0xbd,
  0x5a, 0x5f, 0xf9, 0x3b, 0x6a, 0xf9, 0x5c, 0x3e, 0xb7, 0xc6, 0x18, 0x3e,
  0xff, 0xc5, 0x3d, 0x3e, 0x11, 0x4b, 0x7c, 0xbd, 0xeb, 0xfb, 0xa7, 0xbe,
  0x4f, 0xd1, 0x49, 0xbd, 0xe0, 0x19, 0xc6, 0x3c, 0xa8, 0x5c, 0x79, 0x3d,
  0x9a, 0x35, 0x26, 0x3e, 0x4d, 0x75, 0x84, 0x3e, 0x6c, 0xe4, 0x5b, 0xbe,
  0xed, 0x92, 0x9a, 0xbd, 0x6d, 0x0d, 0xda, 0xbb, 0x0d, 0x3a, 0x3c, 0xbd,
  0xf2, 0x0b, 0xa3, 0xbd, 0x8c, 0x40, 0x4b, 0x3d, 0xa8, 0x6a, 0xc9, 0xbd,
  0xf9, 0x2c, 0x1e, 0x3d, 0x70, 0x8b, 0x2a, 0x3e, 0x95, 0x18, 0x4b, 0x3d,
  0x5b, 0xf9, 0x48, 0xbd, 0x57, 0x71, 0x8e, 0xbc, 0x1c, 0xeb, 0x9a, 0x3d,
  0xfd, 0x53, 0x81, 0x3e, 0xb1, 0x74, 0x2d, 0xbd, 0x76, 0xa6, 0xa2, 0x3e,
  0x66, 0x9b, 0xe4, 0xbb, 0x8e, 0xf6, 0x50, 0xbd, 0x0a, 0x02, 0x40, 0x3d,
  0x89, 0x2f, 0xa5, 0xbd, 0xb8, 0xf7, 0xb2, 0x3e, 0xc9, 0x88, 0xb2, 0x3e,
  0x0d, 0x07, 0x6f, 0x3e, 0xcc, 0x90, 0x4b, 0xbe, 0xf8, 0x94, 0x5c, 0x3e,
  0x93, 0x9c, 0x9a, 0x3d, 0x19, 0x42, 0x88, 0xbe, 0xa9, 0x2b, 0xf4, 0xbd,
  0x69, 0xde, 0x1f, 0x3e, 0x06, 0x8d, 0x52, 0x3e, 0x53, 0x1e, 0x7c, 0xbd,
  0xf5, 0xb5, 0xba, 0x3e, 0x01, 0x7d, 0xdf, 0x3d, 0x9d, 0xfe, 0x3c, 0xbe,
  0x40, 0x45, 0xac, 0x3c, 0xfb, 0x02, 0xb2, 0x3d, 0x62, 0x2b, 0xe6, 0x3d,
  0xd9, 0x01, 0x9a, 0x3c, 0x05, 0xfa, 0x0e, 0x3e, 0x6b, 0x11, 0xf4, 0xbd,
  0x31, 0x92, 0x25, 0x3d, 0x37, 0xae, 0x6b, 0x3e, 0x13, 0xe2, 0xdf, 0xbe,
  0xc7, 0x09, 0x21, 0xbe, 0xc7, 0xa7, 0x97, 0xbe, 0x77, 0x92, 0x7e, 0x3e,
  0x35, 0x81, 0xa8, 0xbc, 0xd7, 0x43, 0x67, 0x3e, 0x33, 0x81, 0x51, 0xbe,
  0x04, 0xa7, 0x46, 0xbe, 0x2e, 0xc0, 0x83, 0x3e, 0xea, 0x2a, 0xf5, 0x3c,
  0xe1, 0x9c, 0xdf, 0xbd, 0xa2, 0x33, 0xee, 0x3e, 0x89, 0x79, 0xb3, 0xbd,
  0x36, 0x76, 0x8a, 0xbe, 0x14, 0x1f, 0x0b, 0x3f, 0x57, 0x33, 0xba, 0x3e,
  0x57, 0xa5, 0xe3, 0x3e, 0x70, 0x96, 0x62, 0xbc, 0xbd, 0xcc, 0xb8, 0xbd,
  0x4f, 0xa4, 0x63, 0xbd, 0x83, 0x15, 0x85, 0xbe, 0x64, 0xfc, 0xab, 0x3d,
  0x72, 0x53, 0xd4, 0x3d, 0xb3, 0x1e, 0xbe, 0xbe, 0xbb, 0xab, 0x98, 0x3e,
  0x45, 0xde, 0x82, 0x3d, 0xe1, 0xdd, 0x04, 0xbe, 0xd6, 0x58, 0x58, 0xbe,
  0x03, 0x42, 0xe8, 0xbc, 0x49, 0xab, 0xa8, 0xbd, 0x3d, 0x3e, 0x77, 0x3e,
  0xe7, 0x2a, 0xd3, 0x3d, 0xf3, 0x66, 0x19, 0x3f, 0xd8, 0x57, 0xb2, 0x3c,
  0xf7, 0x1d, 0x93, 0x3c, 0x70, 0x40, 0xe6, 0x3e, 0x2b, 0xeb, 0x7f, 0xbe,
  0xd8, 0xcd, 0x9c, 0x3e, 0xf4, 0x1e, 0xe8, 0x3c, 0x18, 0x0d, 0x8f, 0x3d,
  0x19, 0xbd, 0x64, 0xbd, 0x38, 0xb3, 0x12, 0x3d, 0x93, 0x28, 0xcd, 0xbd,
  0x59, 0x2d, 0x58, 0xbe, 0x8a, 0x5d, 0x8b, 0x3d, 0x3f, 0x15, 0xa0, 0x3d,
  0x72, 0xa3, 0xa0, 0x3d, 0xfe, 0x27, 0x3c, 0xbd, 0x5c, 0x7f, 0x0c, 0x3f,
  0x26, 0x9d, 0x80, 0x3d, 0x75, 0x2c, 0x0d, 0x3d, 0xa3, 0x91, 0x07, 0x3e,
  0xf8, 0x4a, 0x1a, 0xbe, 0xa0, 0x11, 0x93, 0x3e, 0x39, 0x09, 0x01, 0xbe,
  0x1b, 0x6c, 0x15, 0x3d, 0x23, 0x48, 0xbf, 0x3e, 0x9d, 0xda, 0xc6, 0x3d,
  0xa0, 0x23, 0xd8, 0xbd, 0x9b, 0x26, 0xa2, 0x3e, 0xde, 0xdc, 0x0f, 0x3e,
  0xe9, 0xfe, 0x13, 0xbe, 0xd4, 0xde, 0x93, 0x3d, 0x24, 0x04, 0xf9, 0x3c,
  0x46, 0x35, 0x6f, 0x3f, 0x4c, 0x15, 0x44, 0x3d, 0xbf, 0x91, 0x04, 0x3e,
  0x03, 0xa6, 0xf3, 0xbd, 0xe4, 0x9b, 0x23, 0xbe, 0xa6, 0x57, 0x86, 0x3e,
  0x53, 0xf4, 0x39, 0x3e, 0xce, 0xaa, 0x93, 0xbe, 0x17, 0xdc, 0xa0, 0x3e,
  0x1c, 0x75, 0x6d, 0x3d, 0xef, 0xd0, 0xe8, 0xbd, 0xa8, 0x21, 0xf2, 0x3d,
  0x18, 0x1e, 0xd8, 0xbe, 0x5d, 0x29, 0x03, 0xbe, 0x2d, 0xf4, 0x0c, 0xbe,
  0x3b, 0x5b, 0xee, 0x3c, 0x29, 0x4d, 0x74, 0x3f, 0x61, 0x40, 0x45, 0x3d,
  0xa4, 0xa9, 0xcd, 0xbd, 0x90, 0xc6, 0x91, 0xbe, 0x12, 0x10, 0x6c, 0xbe,
  0xba, 0x1f, 0x8b, 0x3e, 0x84, 0x6b, 0xf9, 0xbc, 0xbc, 0xc9, 0x3d, 0xbd,
  0x58, 0x18, 0xea, 0x3e, 0x33, 0xb9, 0x72, 0xbc, 0xb7, 0x3f, 0x7a, 0x3d,
  0x69, 0x1c, 0x42, 0xbc, 0xfd, 0x9a, 0x91, 0xbe, 0xd5, 0xa7, 0xd7, 0xbd,
  0xa1, 0xd0, 0x9b, 0x3d, 0x07, 0xa9, 0x21, 0x3e, 0x71, 0x6d, 0x4d, 0x3f,
  0xbc, 0x77, 0xb3, 0xbb, 0x94, 0xb1, 0xf6, 0xbd, 0xb5, 0xfd, 0xaf, 0xbe,
  0x7a, 0x64, 0x86, 0xbe, 0xa7, 0x19, 0x6c, 0x3d, 0x7d, 0x00, 0x1f, 0x3e,
  0x95, 0xc7, 0xb1, 0xbe, 0xc4, 0x5a, 0x87, 0xbe, 0x91, 0x18, 0x79, 0x3d,
  0x0f, 0x66, 0xe6, 0x3d, 0x97, 0xdf, 0x2c, 0xbd, 0x1e, 0xad, 0x1e, 0xbe,
  0xc0, 0xc1, 0x9c, 0xbe, 0xa2, 0x14, 0xd8, 0x3d, 0x70, 0xcc, 0xe9, 0x3d,
  0x60, 0xec, 0x5f, 0xbe, 0xe0, 0xf6, 0xf7, 0xbb, 0x4d, 0x76, 0x7e, 0x3d,
  0x48, 0x89, 0x2c, 0xbd, 0xe9, 0x25, 0x9d, 0xbe, 0xc8, 0x5e, 0x49, 0x3d,
  0x8b, 0xd8, 0x9a, 0xbe, 0x81, 0xae, 0xd7, 0x3b, 0x9b, 0xda, 0xb2, 0x3e,
  0xf5, 0x25, 0xac, 0xbc, 0x0b, 0x2a, 0xaf, 0xbe, 0x28, 0x9f, 0xa0, 0xbd,
  0x7b, 0x9f, 0xf7, 0x3d, 0x62, 0x02, 0xb4, 0x3d, 0xb3, 0x0f, 0xf7, 0x3c,
  0x0c, 0xe4, 0x17, 0xbf, 0x9b, 0x8a, 0x36, 0x3e, 0x74, 0xfc, 0x9f, 0x3d,
  0xab, 0x26, 0x57, 0x3d, 0x40, 0x38, 0x4e, 0xbd, 0xf6, 0x07, 0xcd, 0x3c,
  0xc9, 0x65, 0x4f, 0x3c, 0x8a, 0x27, 0xac, 0x3d, 0xa6, 0xc3, 0xe3, 0xbe,
  0x41, 0xab, 0xf8, 0xbc, 0xab, 0xd8, 0xf5, 0xbd, 0x40, 0x21, 0x6a, 0xbd,
  0x3c, 0xda, 0xfc, 0xbd, 0x7e, 0x4c, 0xfa, 0xbb, 0x73, 0x88, 0x19, 0xbf,
  0x06, 0xfa, 0x96, 0xbc, 0xe2, 0xe3, 0x90, 0xbd, 0x2d, 0x00, 0x38, 0x3f,
  0x2a, 0x6d, 0x8c, 0xbd, 0xeb, 0x65, 0x67, 0xbe, 0xbb, 0x09, 0x22, 0x3f,
  0x49, 0x10, 0x81, 0xbe, 0x18, 0xb0, 0xb8, 0xbe, 0x63, 0xbf, 0x61, 0x3e,
  0x21, 0x68, 0x93, 0xbd, 0x26, 0xea, 0x1a, 0x3e, 0xe1, 0xa3, 0x4f, 0xbd,
  0xbb, 0xd1, 0xce, 0x3d, 0x43, 0xca, 0xd5, 0x3d, 0xa0, 0xfc, 0x07, 0x3e,
  0xe9, 0x14, 0x3b, 0xbe, 0x08, 0x7f, 0x7a, 0x3c, 0xe5, 0xaa, 0x89, 0x3e,
  0x16, 0x48, 0x78, 0x3f, 0xe1, 0x3d, 0x7b, 0xbc, 0x2d, 0xb2, 0x3f, 0xbe,
  0xf1, 0x38, 0x9c, 0x3e, 0xc0, 0x87, 0x3b, 0xbd, 0xd4, 0xc8, 0xda, 0xbd,
  0xd3, 0xb9, 0xe2, 0x3d, 0xe8, 0x65, 0x9a, 0x3d, 0xfe, 0x65, 0x6f, 0xbe,
  0x19, 0x53, 0x0c, 0xbd, 0x77, 0xa7, 0x83, 0x3d, 0x48, 0x61, 0x2d, 0x3e,
  0xfa, 0x33, 0x71, 0xbd, 0xf4, 0xb4, 0x3b, 0xbe, 0x70, 0x8e, 0x3e, 0xbd,
  0xe5, 0xea, 0xe5, 0x3d, 0xcd, 0x70, 0xb2, 0x3f, 0x9d, 0x05, 0x5a, 0x3c,
  0x75, 0x62, 0x6d, 0x3c, 0x4d, 0x1c, 0x0c, 0x3e, 0x3c, 0x86, 0x3d, 0x3c,
  0xa2, 0x0f, 0xcc, 0xbe, 0xb9, 0x19, 0x3a, 0xbe, 0x9c, 0x5f, 0x57, 0xbe,
  0x95, 0x34, 0xf2, 0x3d, 0xcd, 0xe0, 0x60, 0x3b, 0xa7, 0xef, 0xc3, 0x3b,
  0xfc, 0x81, 0xe6, 0x3d, 0x68, 0xf9, 0xa9, 0x3e, 0xce, 0x50, 0xd3, 0xbd,
  0x3c, 0x54, 0x06, 0xbd, 0xa6, 0x56, 0x74, 0x3d, 0xe6, 0xbd, 0x96, 0x3f,
  0xb5, 0x25, 0x02, 0x3d, 0x98, 0x54, 0x5e, 0x3e, 0xdb, 0x29, 0x2e, 0x3e,
  0x1f, 0x7e, 0x6c, 0xbe, 0x94, 0x7b, 0x1f, 0xbe, 0x21, 0xf6, 0xd3, 0xbd,
  0xac, 0x8e, 0x30, 0xbd, 0x87, 0x5c, 0x40, 0x3e, 0x15, 0x04, 0x12, 0x3d,
  0x59, 0x22, 0x3d, 0x3c, 0x90, 0x63, 0x5f, 0x3e, 0x89, 0xff, 0x70, 0x3e,
  0x8d, 0xbf, 0x7d, 0x3c, 0x10, 0x95, 0x44, 0xbc, 0x82, 0x43, 0x73, 0x3e,
  0x03, 0x5c, 0xa1, 0x3f, 0x45, 0x96, 0xf7, 0x3d, 0x66, 0x32, 0xbf, 0x3d,
  0x3c, 0xf4, 0x80, 0x3c, 0xaf, 0x9a, 0x0e, 0xbe, 0x6f, 0x18, 0x9f, 0xbd,
  0x68, 0x34, 0xa0, 0x3d, 0xb2, 0x6b, 0x96, 0xbd, 0x60, 0xac, 0x5a, 0x3e,
  0x7d, 0xc7, 0xf6, 0x3c, 0x74, 0x5c, 0xb2, 0xba, 0x3d, 0x56, 0x95, 0x3d,
  0x4d, 0xc5, 0xa3, 0x3d, 0x20, 0x30, 0x3b, 0xbe, 0xb0, 0x39, 0x8b, 0xbd,
  0x75, 0x32, 0x3b, 0x3e, 0x15, 0xc6, 0x70, 0x3d, 0xb8, 0x2d, 0x1b, 0x3d,
  0x9e, 0xae, 0x51, 0x3e, 0xfb, 0x7b, 0x8d, 0x3d, 0x22, 0xdd, 0xe8, 0xbd,
  0x76, 0x92, 0x24, 0xbe, 0xbc, 0xb7, 0x4d, 0xbe, 0xfe, 0x8b, 0x8b, 0xbe,
  0x23, 0x15, 0x92, 0xbd, 0xe5, 0xe7, 0x44, 0xbd, 0x67, 0xea, 0x7b, 0x3d,
  0xd3, 0xdf, 0x53, 0xbe, 0x7d, 0xc2, 0x8c, 0xbd, 0xcb, 0x6c, 0x0c, 0xbf,
  0x70, 0x00, 0x9b, 0x3b, 0xc3, 0xc5, 0x13, 0xbe, 0x25, 0x4e, 0x11, 0x40,
  0x8c, 0x6b, 0x61, 0x3b, 0xb6, 0xa4, 0x89, 0xbe, 0x3f, 0x02, 0xd6, 0x3d,
  0xa0, 0x0c, 0x07, 0xbf, 0x9a, 0xd9, 0xc8, 0xbe, 0x55, 0x52, 0x3a, 0x3c,
  0x10, 0x06, 0x66, 0xbe, 0xf3, 0x04, 0xaf, 0x3d, 0xb0, 0x7b, 0x89, 0x3a,
  0xfb, 0xe9, 0x7e, 0xbd, 0x17, 0x19, 0x10, 0x3d, 0xd1, 0x3e, 0xa5, 0x3b,
  0xc3, 0xe1, 0x83, 0xbe, 0x9a, 0xd2, 0x0b, 0xbe, 0xa2, 0xd3, 0x32, 0xbe,
  0xc8, 0xa9, 0xac, 0x3f, 0x56, 0x72, 0x63, 0x3d, 0x47, 0x7e, 0x16, 0x3d,
  0xa5, 0x66, 0xbd, 0x3e, 0xb1, 0x67, 0x74, 0xbe, 0x4d, 0xb7, 0x8e, 0xbe,
  0xc8, 0x7f, 0x0b, 0x3c, 0x9f, 0xbf, 0x2b, 0xbe, 0xe2, 0xc5, 0xa2, 0xbd,
  0xf0, 0x92, 0x7c, 0x3d, 0xeb, 0x86, 0xb5, 0xbc, 0xec, 0x18, 0xba, 0x3d,
  0xab, 0x28, 0xca, 0x3c, 0xc1, 0x1a, 0x3a, 0xbe, 0x12, 0x89, 0x81, 0xbe,
  0xde, 0xe8, 0xb5, 0xbd, 0x53, 0x74, 0x3a, 0x40, 0x45, 0x47, 0x08, 0x3e,
  0x69, 0xa3, 0x91, 0x3e, 0xae, 0x31, 0x4b, 0x3f, 0xdb, 0xcc, 0x7b, 0xbe,
  0x32, 0x13, 0x7b, 0xbd, 0xc2, 0x7b, 0xc7, 0x3d, 0xc3, 0x14, 0xb1, 0xbd,
  0xad, 0xd5, 0xf3, 0xbd, 0x4a, 0x61, 0x4d, 0x3d, 0x91, 0x65, 0xa4, 0xbe,
  0x9e, 0x13, 0x0c, 0x3e, 0x3d, 0x35, 0xbc, 0x3b, 0xc5, 0xb5, 0xbd, 0xbe,
  0x98, 0xef, 0xcc, 0xbd, 0x83, 0xd5, 0xae, 0x3b, 0x0f, 0x8c, 0x88, 0x40,
  0xde, 0x6a, 0xf9, 0x3d, 0x96, 0x06, 0x5a, 0x3d, 0x36, 0xcf, 0xd2, 0x3d,
  0xf7, 0xd3, 0x36, 0xbe, 0x4e, 0x36, 0x21, 0xbe, 0x91, 0x7d, 0x81, 0x3e,
  0x07, 0x96, 0xa8, 0xbe, 0x52, 0x84, 0x75, 0x3d, 0x4c, 0xe0, 0x97, 0xbc,
  0x8a, 0x88, 0x02, 0xbe, 0xcd, 0xd6, 0x30, 0xbe, 0xf4, 0x00, 0xad, 0xbd,
  0x1c, 0x69, 0xcd, 0xbe, 0x69, 0x86, 0x68, 0x3d, 0x68, 0x76, 0x5f, 0x3e,
  0x84, 0x51, 0x3d, 0x40, 0xbe, 0xef, 0x03, 0x3e, 0xb8, 0x7a, 0x43, 0xbc,
  0x78, 0xe3, 0x35, 0xbe, 0x5b, 0xfe, 0x32, 0xbe, 0x55, 0xd8, 0x5c, 0xbe,
  0x66, 0xee, 0x00, 0xbe, 0xd7, 0xf1, 0x7b, 0xbe, 0x0f, 0x11, 0xcf, 0xbd,
  0x58, 0xa9, 0x70, 0x3d, 0xf7, 0xc1, 0x9f, 0xbe, 0xd2, 0x04, 0x3c, 0xbe,
  0x83, 0x09, 0x24, 0xbe, 0x36, 0x57, 0x89, 0xbe, 0x02, 0x9e, 0x29, 0xbd,
  0xfc, 0xe2, 0xee, 0xbd, 0x0c, 0x3e, 0x41, 0x40, 0x96, 0xa9, 0x98, 0x3c,
  0x07, 0x1b, 0x04, 0xbe, 0x8d, 0x5e, 0x1a, 0xbc, 0x66, 0x7f, 0x50, 0xbe,
  0x51, 0xce, 0x02, 0xbe, 0xc7, 0xba, 0x14, 0xbc, 0xbe, 0x08, 0xfb, 0xbe,
  0x4a, 0x20, 0xdb, 0x3d, 0x8c, 0x88, 0xd4, 0x3d, 0xee, 0x11, 0xd6, 0xbe,
  0xeb, 0xb9, 0xd5, 0xbd, 0xd8, 0x5a, 0x2e, 0x3d, 0xf6, 0x28, 0x6f, 0xbe,
  0xac, 0x63, 0x9b, 0x3c, 0x5e, 0x58, 0x47, 0xbd, 0x4e, 0x75, 0x92, 0xbd,
  0xb6, 0xe8, 0x14, 0xbc, 0x03, 0x10, 0x7b, 0x3d, 0x1a, 0xb4, 0x6a, 0xbd,
  0x07, 0x6c, 0x28, 0xbf, 0x71, 0x50, 0x01, 0xbc, 0x41, 0x81, 0xea, 0x3d,
  0x87, 0xf2, 0x05, 0xbd, 0x55, 0xb8, 0xb1, 0x3e, 0x03, 0x41, 0x15, 0x3e,
  0xd5, 0x1f, 0xdc, 0x3d, 0xf3, 0x39, 0xf6, 0x3d, 0xff, 0xb1, 0x69, 0x3d,
  0xf0, 0x1f, 0x14, 0xbe, 0xc7, 0x4b, 0xfa, 0x3c, 0x00, 0x6c, 0xa6, 0x3d,
  0x65, 0x6d, 0x87, 0x3e, 0x0c, 0x3c, 0x92, 0xbc, 0xb8, 0xd3, 0xca, 0x3d,
  0x90, 0x6c, 0x5f, 0xbe, 0x81, 0x68, 0x3b, 0xbd, 0x61, 0xaf, 0xc6, 0x3d,
  0x7b, 0xec, 0x3a, 0xbc, 0x6d, 0xa8, 0xba, 0x38, 0x9b, 0x1c, 0x44, 0x3e,
  0xa1, 0xfd, 0x27, 0xbd, 0x87, 0x85, 0xf1, 0x3c, 0x51, 0x46, 0xa4, 0xbb,
  0x6f, 0xbd, 0x5b, 0xbd, 0xf5, 0x98, 0x36, 0x3d, 0x51, 0x9f, 0x0a, 0x3e,
  0x7a, 0x8e, 0xd9, 0xbd, 0x21, 0xad, 0x8b, 0xbe, 0x94, 0xe6, 0xd4, 0xbe,
  0x70, 0x87, 0x8c, 0xbd, 0x9d, 0xe8, 0xb1, 0xbe, 0xd0, 0x86, 0xd8, 0xbe,
  0x24, 0x47, 0x4f, 0xbe, 0xb5, 0xbe, 0xff, 0x3c, 0x28, 0x5f, 0x25, 0x3c,
  0x75, 0x90, 0xbc, 0x3e, 0x6c, 0x6b, 0xe3, 0xbc, 0x19, 0xe2, 0x21, 0xbd,
  0x55, 0x60, 0x72, 0xbe, 0x38, 0xa2, 0x72, 0x3c, 0xad, 0x57, 0x00, 0x3d,
  0xd2, 0xe3, 0x75, 0x3a, 0x5d, 0x43, 0xd0, 0xbd, 0x4b, 0x56, 0x52, 0xbe,
  0x4f, 0x53, 0xbc, 0xbe, 0xae, 0x9c, 0x3d, 0xbd, 0x1d, 0xe6, 0x8f, 0xbe,
  0xc8, 0xeb, 0x95, 0xbd, 0xe6, 0x01, 0x50, 0x3e, 0x59, 0x22, 0xad, 0xbd,
  0x4f, 0x35, 0x72, 0x3e, 0x90, 0xf1, 0x86, 0x3c, 0x63, 0x91, 0x3e, 0xbc,
  0xbc, 0x0d, 0xd3, 0x3b, 0xc6, 0x82, 0x36, 0xbe, 0x8f, 0x8f, 0x8f, 0xbd,
  0x39, 0xd4, 0x59, 0x3e, 0xc4, 0x52, 0x84, 0x3d, 0xa1, 0x72, 0x6b, 0x3e,
  0xa4, 0x4c, 0x66, 0xbe, 0x16, 0x0b, 0x30, 0xbe, 0x32, 0x36, 0x02, 0xbd,
  0x41, 0x8c, 0x50, 0xbb, 0x48, 0x8f, 0xbd, 0x3c, 0x7b, 0x74, 0x20, 0x3e,
  0x7d, 0x9c, 0xe7, 0x3d, 0x94, 0x8b, 0x1d, 0xbd, 0x4f, 0x42, 0xc6, 0x3e,
  0xb4, 0xf3, 0x87, 0x3d, 0x12, 0x25, 0x38, 0x3c, 0x83, 0x8b, 0xd4, 0x3c,
  0xa4, 0x45, 0x95, 0x3d, 0xdb, 0x8f, 0x0e, 0x3e, 0x1e, 0x76, 0xb8, 0x3d,
  0x3a, 0x59, 0x86, 0x3d, 0x73, 0x16, 0xb1, 0xbe, 0x03, 0x89, 0x66, 0xbe,
  0x7a, 0x90, 0xbf, 0x3c, 0x6e, 0xaa, 0x8b, 0x3e, 0xfb, 0xf5, 0x38, 0xbe,
  0xa5, 0xae, 0xb7, 0x3c, 0x3c, 0x72, 0xa0, 0xbd, 0x77, 0x3c, 0x87, 0xbd,
  0xd8, 0xac, 0x68, 0x3e, 0x4e, 0xae, 0xa6, 0x3d, 0xe0, 0xbc, 0x7e, 0x3c,
  0x0c, 0xd1, 0x53, 0x3e, 0x08, 0xcf, 0x85, 0x3e, 0x28, 0x3c, 0xbc, 0x3c,
  0x55, 0xb1, 0x48, 0xbd, 0x53, 0xb3, 0x80, 0xbd, 0x78, 0x84, 0x99, 0xbe,
  0xf2, 0x30, 0x24, 0xbe, 0x47, 0xb6, 0x0b, 0x3d, 0x62, 0x77, 0xfb, 0x3e,
  0x59, 0x49, 0x62, 0xbe, 0xbe, 0x32, 0x40, 0xbc, 0x0a, 0x26, 0x97, 0x3e,
  0x6c, 0x16, 0x38, 0xbe, 0xf0, 0xc8, 0x34, 0x3d, 0x96, 0x5e, 0x32, 0x3d,
  0x91, 0x9f, 0x67, 0x3e, 0x44, 0xe2, 0xaf, 0x3c, 0x89, 0xa4, 0x94, 0x3e,
  0xd4, 0x90, 0xa0, 0xbc, 0x95, 0xa3, 0xf3, 0x3d, 0x75, 0x47, 0xc1, 0xbd,
  0xd0, 0x8e, 0x23, 0xbe, 0x60, 0xc9, 0x15, 0xbe, 0x3e, 0x7c, 0x98, 0x3d,
  0xe6, 0x29, 0x2b, 0x3e, 0x33, 0x50, 0xcc, 0xbd, 0xc4, 0xf4, 0x20, 0x3e,
  0x6a, 0xac, 0x86, 0x3d, 0x2b, 0xb8, 0x50, 0xbe, 0x81, 0x20, 0x53, 0xbe,
  0xf1, 0xaf, 0xc9, 0xbc, 0xff, 0xfd, 0x92, 0x3c, 0x7d, 0xfb, 0x83, 0xbe,
  0x62, 0x3a, 0xa9, 0xbe, 0xda, 0xc7, 0x57, 0x3b, 0xe1, 0x2a, 0xbc, 0xbe,
  0xf0, 0x02, 0x3d, 0xbe, 0x78, 0x39, 0x4d, 0xbe, 0x38, 0x1d, 0xc8, 0xbd,
  0xcd, 0x21, 0x9e, 0xbe, 0x23, 0x91, 0x01, 0xbe, 0x1a, 0x75, 0xc7, 0xbd,
  0x8e, 0x61, 0x63, 0xbe, 0xae, 0x3b, 0x2e, 0x3e, 0xa9, 0xb3, 0x32, 0x3e,
  0x0c, 0x77, 0x93, 0x3e, 0x5b, 0x9b, 0x86, 0xbe, 0x7d, 0x89, 0x71, 0x3d,
  0x53, 0xe9, 0xcb, 0xbe, 0x4d, 0x86, 0x34, 0x3d, 0x19, 0xc4, 0x13, 0x3e,
  0xc2, 0x77, 0xc9, 0xbe, 0x7a, 0x93, 0xa7, 0xbe, 0x62, 0x85, 0xaa, 0xbd,
  0xb2, 0x58, 0x83, 0xbd, 0xfc, 0xab, 0x0e, 0xbe, 0x80, 0x23, 0xf2, 0x3d,
  0x66, 0x0c, 0x2c, 0xbd, 0xab, 0x84, 0x4f, 0xbe, 0x49, 0x17, 0x8c, 0x3e,
  0x8a, 0x33, 0x0b, 0x3a, 0x4e, 0x5f, 0x1d, 0xbd, 0x54, 0xbe, 0x5f, 0x3c,
  0x93, 0xb0, 0x9f, 0xbd, 0xf0, 0xc6, 0x03, 0xbf, 0x46, 0xd0, 0xef, 0x3e,
  0x2d, 0xe4, 0x58, 0x3e, 0x0b, 0xf7, 0xa8, 0xbe, 0xaa, 0x8d, 0xa5, 0xbe,
  0xdb, 0xf2, 0x9c, 0x3d, 0x29, 0xbd, 0xdb, 0x3d, 0x8a, 0x01, 0xe9, 0xbd,
  0x9d, 0x65, 0xeb, 0x3d, 0x96, 0x06, 0xd8, 0xbc, 0x36, 0x89, 0xb1, 0xbe,
  0x34, 0x18, 0x19, 0x3e, 0xbb, 0x62, 0x7b, 0xbd, 0x74, 0x21, 0x2d, 0x3e,
  0x16, 0x6b, 0x37, 0x3b, 0xd0, 0xb6, 0xce, 0xbd, 0x9c, 0x0b, 0xec, 0xbe,
  0x8e, 0x99, 0x82, 0x3b, 0x6d, 0x7d, 0x64, 0x3e, 0x78, 0x8d, 0xea, 0xbd,
  0x8e, 0xe8, 0xe4, 0xbe, 0x83, 0x3e, 0xf0, 0x3c, 0xaf, 0x43, 0x77, 0x3c,
  0x79, 0xea, 0xb6, 0xbd, 0xde, 0x77, 0xb3, 0xbd, 0x8d, 0x88, 0x29, 0x3d,
  0x10, 0x6e, 0xcc, 0xbe, 0x4e, 0x4e, 0x2a, 0x3e, 0xa7, 0x6a, 0x5e, 0x3e,
  0x46, 0x06, 0x09, 0xbe, 0x48, 0xcd, 0xe8, 0x3d, 0x5d, 0xac, 0xbf, 0xbd,
  0x50, 0x2f, 0xe9, 0xbe, 0x69, 0xa9, 0xc6, 0xbc, 0xff, 0x98, 0x6d, 0x3d,
  0xa0, 0x1c, 0x0b, 0xbf, 0xf8, 0xf7, 0x5a, 0xbe, 0x72, 0x80, 0x24, 0xbe,
  0xf4, 0xf3, 0x2d, 0x3c, 0x56, 0x1c, 0xa9, 0xbc, 0xa7, 0x2b, 0x5d, 0xbd,
  0x6c, 0xa6, 0xbe, 0xbd, 0xc9, 0x85, 0x8e, 0xbe, 0x4b, 0xc9, 0xfa, 0xbe,
  0x15, 0x54, 0xd8, 0x3d, 0xa3, 0x0d, 0x28, 0x3e, 0x0c, 0xbe, 0x78, 0x3d,
  0x86, 0xfc, 0xbb, 0xbe, 0xc5, 0xe1, 0x35, 0xbe, 0x1d, 0xa7, 0x9f, 0xbd,
  0xb0, 0x24, 0x13, 0x3d, 0x5d, 0x22, 0x94, 0xbe, 0xe9, 0x99, 0xa8, 0xbe,
  0xcb, 0xd9, 0x29, 0xbe, 0x1b, 0x0d, 0xa3, 0x3c, 0xbc, 0xa3, 0x7d, 0xbe,
  0xfb, 0x18, 0x8f, 0xbe, 0xa3, 0xf6, 0x02, 0x3e, 0xcd, 0xc7, 0x8f, 0xbe,
  0xce, 0x55, 0xac, 0xbe, 0x95, 0xd1, 0xb9, 0x3d, 0xbc, 0x66, 0xea, 0xbc,
  0x6b, 0x2c, 0x06, 0x3e, 0x29, 0x22, 0xa4, 0x3d, 0xad, 0xf7, 0xe0, 0x3e,
  0xf5, 0x00, 0x5a, 0xbe, 0xb5, 0xa3, 0x82, 0x3b, 0x86, 0x45, 0x93, 0xbb,
  0x65, 0x52, 0x1c, 0xbe, 0x8b, 0xf4, 0x1c, 0x3e, 0x5f, 0xe1, 0x3e, 0x3d,
  0x5c, 0xcb, 0x79, 0xbc, 0xe5, 0x84, 0xda, 0xbe, 0x85, 0xe7, 0xc9, 0x3d,
  0x00, 0x96, 0x70, 0xbe, 0x25, 0x4f, 0x0f, 0xbf, 0x98, 0xc8, 0x62, 0xbe,
  0x99, 0xb9, 0xa7, 0x3c, 0xcd, 0xe2, 0x91, 0xbb, 0x36, 0xd4, 0xfd, 0x3c,
  0x0b, 0xc0, 0x9f, 0xbe, 0x4e, 0x72, 0x9a, 0xbe, 0xbb, 0x8c, 0xce, 0xbe,
  0x5f, 0x96, 0x39, 0xbe, 0x74, 0x39, 0xef, 0xbe, 0xf0, 0x55, 0x4e, 0xbe,
  0x86, 0x8d, 0x21, 0x3d, 0x15, 0xb7, 0x06, 0xbf, 0x4c, 0x00, 0x64, 0xbe,
  0x87, 0x34, 0x98, 0xbe, 0xe1, 0xa7, 0x53, 0xbf, 0x7d, 0x09, 0x89, 0x3e,
  0xe4, 0x4e, 0xb5, 0x3d, 0xa7, 0xa1, 0xe0, 0x3d, 0xf6, 0x26, 0x7c, 0x3d,
  0x28, 0x35, 0x42, 0xbe, 0x8a, 0xaf, 0x23, 0xbe, 0xae, 0xb8, 0x26, 0x3e,
  0xc4, 0xe9, 0x95, 0xbe, 0x8f, 0x36, 0xe7, 0xbd, 0x18, 0x06, 0xa6, 0xbd,
  0x03, 0xb5, 0xbd, 0xbd, 0x2e, 0xdd, 0x0a, 0x3e, 0x96, 0xdd, 0x20, 0xbe,
  0x95, 0x5b, 0x96, 0xbd, 0xde, 0xbc, 0xa8, 0x3d, 0xc9, 0xe3, 0x46, 0xbe,
  0x85, 0x3e, 0xbf, 0xbc, 0x0a, 0xef, 0x1d, 0xbe, 0x3f, 0x8d, 0x89, 0xbd,
  0x23, 0xf4, 0x85, 0x3d, 0xcf, 0x35, 0xe3, 0xbd, 0x23, 0x4c, 0x33, 0xbc,
  0x19, 0x9d, 0x81, 0x3e, 0x55, 0x53, 0x98, 0xbe, 0xdf, 0x8c, 0x0f, 0xbd,
  0x05, 0x22, 0x9a, 0xbd, 0x22, 0x9e, 0x08, 0x3e, 0x0f, 0x70, 0x8b, 0x3d,
  0xe7, 0x47, 0xd2, 0x3b, 0xbf, 0x7e, 0xb0, 0xbd, 0xe7, 0x82, 0xac, 0xbe,
  0xbf, 0xb0, 0xce, 0xbe, 0x24, 0x11, 0xe1, 0x3c, 0xdd, 0xd6, 0x91, 0xbd,
  0x09, 0x6b, 0x4d, 0xbe, 0x1b, 0xdf, 0x8b, 0x3d, 0x35, 0x7d, 0x4b, 0xbe,
  0xa9, 0xb3, 0x8d, 0xbd, 0xe2, 0x73, 0x54, 0x3e, 0x61, 0x9c, 0x99, 0xbe,
  0x39, 0x7a, 0x10, 0xbe, 0x25, 0xd8, 0xb7, 0xbd, 0x6b, 0x89, 0x00, 0x3d,
  0xa9, 0xb9, 0xb9, 0x3d, 0x59, 0xfe, 0xa1, 0x3d, 0xc0, 0xfb, 0x89, 0xbe,
  0xd9, 0x15, 0x2f, 0xbe, 0xbb, 0x91, 0x0b, 0xbf, 0x3b, 0xd4, 0xe5, 0xbc,
  0x13, 0x25, 0xba, 0xbe, 0x16, 0x48, 0x69, 0xbe, 0xa7, 0x1e, 0x27, 0xbd,
  0x8c, 0x20, 0xb8, 0x3b, 0x00, 0x4c, 0x8d, 0xbd, 0x48, 0xbd, 0xf0, 0x3d,
  0xad, 0x47, 0x11, 0xbe, 0xc9, 0x8e, 0xf0, 0xbd, 0x91, 0xd4, 0x20, 0xbc,
  0xee, 0x82, 0x25, 0xbe, 0x51, 0xf6, 0x0a, 0x3e, 0xd8, 0x40, 0x2e, 0xbd,
  0x43, 0x1d, 0x98, 0xbd, 0xe3, 0x07, 0x06, 0xbd, 0x2c, 0x59, 0x9f, 0xbe,
  0x2b, 0x80, 0x1c, 0x3e, 0xd3, 0x59, 0x8c, 0xbe, 0xeb, 0x0a, 0x1f, 0xbe,
  0xde, 0x7c, 0x1e, 0x3d, 0xf9, 0x7d, 0x29, 0x3e, 0x25, 0xa6, 0x42, 0xbe,
  0xe4, 0x51, 0x56, 0xbe, 0xee, 0x56, 0x85, 0xbe, 0xdb, 0x41, 0x57, 0xbe,
  0xf2, 0x57, 0xd7, 0xbd, 0xc5, 0xea, 0xd8, 0xbd, 0xfe, 0xeb, 0x36, 0x3d,
  0x8f, 0x89, 0xbb, 0xbd, 0x2f, 0xcd, 0x0a, 0xbb, 0xcc, 0x0e, 0x82, 0xbe,
  0x5d, 0xd3, 0x07, 0xbf, 0xcc, 0xa2, 0xd7, 0x3d, 0x5c, 0xd0, 0x81, 0x3d,
  0x3f, 0x04, 0x4d, 0x3d, 0x7c, 0x17, 0x96, 0x3d, 0x1c, 0x26, 0x18, 0x3e,
  0x05, 0x60, 0x95, 0xbd, 0x27, 0x55, 0xb3, 0x3d, 0x19, 0xeb, 0x36, 0xbe,
  0xab, 0x6a, 0xe8, 0xbc, 0xfc, 0x5f, 0xea, 0x3d, 0x28, 0x3f, 0x1e, 0xbe,
  0xf0, 0xb1, 0xa8, 0x3d, 0x53, 0x5c, 0xf8, 0x3c, 0xcb, 0x70, 0x49, 0x3e,
  0xac, 0x28, 0x8c, 0xbd, 0x62, 0x56, 0xf1, 0x3b, 0xaf, 0x6c, 0xbc, 0xbc,
  0xeb, 0x4d, 0x0b, 0x3e, 0xc6, 0x8d, 0xd7, 0x3e, 0xff, 0x4c, 0x80, 0x3d,
  0x74, 0x5a, 0xb0, 0x3a, 0x93, 0x52, 0xc4, 0x3d, 0xd8, 0x28, 0x9a, 0x3d,
  0x39, 0x6f, 0x11, 0x3e, 0x84, 0xef, 0xab, 0x3d, 0xf8, 0x04, 0x88, 0xbe,
  0x50, 0x6b, 0x03, 0xbd, 0x02, 0x10, 0xc4, 0xbb, 0xb5, 0x84, 0xa8, 0x3d,
  0x52, 0xed, 0xd3, 0xbd, 0x67, 0x58, 0x35, 0x3d, 0x83, 0x1d, 0x0e, 0x3e,
  0x53, 0xc9, 0x5b, 0xbe, 0x62, 0xe1, 0x08, 0xbf, 0x9c, 0xad, 0x9f, 0xbd,
  0x55, 0x9a, 0xa2, 0xbd, 0xe6, 0x34, 0x75, 0x3d, 0x42, 0xdf, 0x00, 0xbe,
  0x80, 0xc0, 0x55, 0xbc, 0x83, 0xc8, 0x37, 0xbf, 0x6a, 0xcc, 0x84, 0xbd,
  0x39, 0x39, 0xd0, 0xbd, 0x5b, 0xe2, 0x03, 0xbf, 0x88, 0x5f, 0x8d, 0x3c,
  0x0b, 0xd6, 0x5d, 0xbe, 0xc8, 0x50, 0xce, 0xbd, 0x13, 0x31, 0x26, 0xbf,
  0x8c, 0x7b, 0x64, 0xbe, 0x3f, 0x47, 0x5d, 0xbd, 0x68, 0x3e, 0xc2, 0x3d,
  0xba, 0xa0, 0xe3, 0xbd, 0xd4, 0xb4, 0x65, 0xbc, 0x54, 0x0f, 0x9b, 0xbd,
  0x48, 0x4a, 0x27, 0x3e, 0xc0, 0x48, 0x3e, 0xbe, 0x4f, 0xda, 0x5b, 0xbe,
  0x04, 0x86, 0x51, 0xbc, 0xe5, 0x73, 0x8d, 0x3d, 0x41, 0xbe, 0x1a, 0x3e,
  0xd2, 0xea, 0x90, 0xbe, 0x48, 0xd9, 0xb1, 0xbe, 0x98, 0xed, 0x09, 0x3c,
  0x4f, 0x8c, 0x80, 0xbe, 0xd9, 0x23, 0x93, 0xbe, 0xef, 0x70, 0xe1, 0xbd,
  0xfe, 0x05, 0x3b, 0x3e, 0x0a, 0x57, 0x8e, 0x3b, 0x96, 0x5b, 0x99, 0xbd,
  0xa9, 0x10, 0x93, 0x3d, 0xbd, 0xb6, 0x8d, 0xbc, 0x2b, 0x3d, 0x6d, 0xbe,
  0xbb, 0x42, 0x89, 0xbe, 0x6a, 0x25, 0xaa, 0xbd, 0x0f, 0x60, 0x88, 0x3d,
  0x27, 0x10, 0x84, 0xbc, 0x8d, 0x1f, 0x0c, 0xbf, 0xeb, 0x13, 0x0e, 0xbe,
  0x62, 0xa1, 0x06, 0x3e, 0xb4, 0x5f, 0xf2, 0xbd, 0x28, 0x45, 0xef, 0xbe,
  0xd4, 0x5b, 0x19, 0x3d, 0xd7, 0x5e, 0x6a, 0xbb, 0xb1, 0x91, 0x5a, 0x3d,
  0x29, 0x9c, 0xea, 0xbc, 0x37, 0xcb, 0x7e, 0xbd, 0x4c, 0xb5, 0x27, 0x3d,
  0xb3, 0x3a, 0xc6, 0x3e, 0x29, 0x35, 0x22, 0xbd, 0xef, 0xb8, 0xa4, 0x3c,
  0xa2, 0x81, 0x56, 0xbd, 0x98, 0x0c, 0x19, 0xbe, 0x1e, 0x1b, 0x21, 0xbc,
  0xf3, 0x49, 0xa5, 0x3e, 0x26, 0x70, 0xe4, 0x3e, 0x7b, 0xe2, 0x4f, 0x3b,
  0x1d, 0xcd, 0xb4, 0xbd, 0x01, 0xba, 0x6e, 0x3d, 0xc7, 0x38, 0xaa, 0xbd,
  0x40, 0x15, 0x91, 0xbe, 0x4e, 0xa6, 0x84, 0x3d, 0x94, 0xf8, 0x87, 0x3c,
  0x7b, 0x32, 0xd9, 0x3c, 0xdb, 0x86, 0x6a, 0x3e, 0xa9, 0x72, 0x97, 0x3d,
  0x4a, 0xc5, 0xd4, 0xbd, 0x67, 0x53, 0x3c, 0xbc, 0x4c, 0xa8, 0x06, 0xbe,
  0x5a, 0x8f, 0x94, 0xbc, 0x18, 0x03, 0x3b, 0x3e, 0x05, 0xb5, 0xbc, 0x3e,
  0xa9, 0x67, 0xde, 0xbe, 0xfe, 0xb0, 0x0b, 0x3e, 0x09, 0x52, 0xa5, 0x3d,
  0xc2, 0x82, 0x6b, 0xbe, 0x81, 0x20, 0xc2, 0x3e, 0x6a, 0x71, 0xa1, 0xbe,
  0x76, 0x5a, 0x51, 0x3d, 0xe3, 0x82, 0xa8, 0x3e, 0x1f, 0x2e, 0xfe, 0x3e,
  0x42, 0x2d, 0x6f, 0x3b, 0x42, 0x20, 0x04, 0xbd, 0xa6, 0xba, 0xc9, 0x3d,
  0x3d, 0x97, 0x2d, 0x3e, 0x74, 0x2b, 0x86, 0x3c, 0x11, 0x64, 0x40, 0xbd,
  0x1e, 0x74, 0x90, 0x3e, 0xab, 0x65, 0xc2, 0xbd, 0x2e, 0x91, 0x48, 0x3e,
  0x2f, 0x01, 0x03, 0x3a, 0xc9, 0xd7, 0x81, 0x3d, 0xcc, 0x58, 0x04, 0xbe,
  0x9d, 0x51, 0xa0, 0x3c, 0xc0, 0x25, 0xf7, 0x3b, 0xee, 0x3d, 0xa6, 0x3c,
  0x7f, 0xbc, 0xf9, 0xbd, 0x37, 0x6b, 0xd6, 0xbd, 0xd8, 0x12, 0xac, 0x3b,
  0xab, 0x4d, 0x85, 0x3c, 0xce, 0xff, 0xd1, 0x3d, 0x0b, 0x37, 0x86, 0xbd,
  0x8a, 0xcb, 0x32, 0x3d, 0x33, 0x65, 0x02, 0xbf, 0x37, 0x2f, 0xa3, 0xbc,
  0x59, 0x72, 0x4f, 0xbe, 0x77, 0x0c, 0x9b, 0xbd, 0x6b, 0x59, 0x73, 0xbd,
  0x29, 0x07, 0x20, 0x3e, 0x28, 0xff, 0xdd, 0xbd, 0x3e, 0x9c, 0x71, 0x3b,
  0xfd, 0x54, 0xc0, 0xbc, 0xec, 0xad, 0x52, 0xbd, 0x56, 0x46, 0xc0, 0xbd,
  0x3e, 0x24, 0x23, 0x3d, 0xe7, 0x96, 0x85, 0x3d, 0xb8, 0x46, 0xf7, 0xbd,
  0x5f, 0xb1, 0x1b, 0xbe, 0xb8, 0xb1, 0x44, 0xbe, 0xe3, 0x78, 0xb9, 0xbe,
  0x20, 0xe5, 0x88, 0xbc, 0xea, 0x7e, 0x10, 0x3c, 0x2e, 0x3a, 0x36, 0x3d,
  0xed, 0x2b, 0x7a, 0x3d, 0x15, 0x8a, 0xa1, 0x3d, 0x0b, 0xb8, 0xd0, 0xbd,
  0x5d, 0xe3, 0x24, 0xbc, 0x5f, 0x49, 0x9f, 0x3b, 0xf9, 0x84, 0x05, 0xbe,
  0x44, 0x70, 0xac, 0xbd, 0x4a, 0xd7, 0x12, 0xbb, 0xdf, 0x99, 0xdc, 0x3c,
  0xa2, 0x2a, 0x6f, 0x3d, 0x29, 0xd5, 0x01, 0xbe, 0xd8, 0x3c, 0x89, 0xbd,
  0x66, 0x4c, 0x7f, 0xbe, 0x36, 0xf3, 0x07, 0x3d, 0xbb, 0x05, 0x01, 0x3d,
  0x73, 0x4e, 0x82, 0xbd, 0xb4, 0x3d, 0x99, 0x3d, 0x5c, 0x60, 0xa2, 0x3e,
  0xfd, 0xe2, 0xb1, 0x3d, 0x07, 0x8f, 0x9a, 0xbd, 0xec, 0x20, 0x31, 0xbd,
  0x3a, 0xe8, 0x44, 0x3d, 0x94, 0x99, 0x86, 0xbd, 0xa2, 0xcd, 0xf7, 0xbb,
  0xdb, 0x92, 0xf0, 0x3c, 0x55, 0xb7, 0x89, 0xbe, 0x9a, 0x06, 0xaa, 0xbd,
  0x23, 0xdd, 0x5e, 0xbd, 0xe2, 0xc7, 0x8b, 0xbe, 0xb7, 0x07, 0xff, 0x3c,
  0xea, 0xda, 0x6c, 0x3e, 0x00, 0x15, 0xaf, 0x3c, 0x60, 0x13, 0x7a, 0xbd,
  0xea, 0x82, 0x8d, 0xbd, 0xb6, 0xd0, 0x77, 0x3c, 0x0f, 0xda, 0x18, 0x3c,
  0xaf, 0x9a, 0x08, 0xbe, 0xdb, 0x73, 0x93, 0xbd, 0xa7, 0x1d, 0x66, 0xbd,
  0x12, 0xef, 0x35, 0x3e, 0xf4, 0x95, 0x14, 0x3d, 0xa4, 0x1d, 0x1f, 0xbe,
  0xcd, 0x82, 0x24, 0xbe, 0x65, 0xb8, 0xb0, 0x3d, 0xb6, 0x4e, 0xee, 0xbe,
  0x6a, 0xe0, 0xbe, 0xbc, 0x17, 0x25, 0x44, 0x3e, 0xfe, 0xe6, 0x38, 0x3e,
  0x1f, 0xe5, 0x00, 0x3e, 0x8b, 0x0c, 0xfc, 0x3d, 0x83, 0x2c, 0x6b, 0xbc,
  0x28, 0xd4, 0x38, 0x3e, 0xbb, 0xba, 0x6a, 0x3e, 0x91, 0xb7, 0x28, 0x3d,
  0xcd, 0xef, 0x0f, 0xbf, 0xcf, 0x2c, 0x31, 0x3d, 0x4d, 0x8f, 0x71, 0x3c,
  0x1a, 0xff, 0xb3, 0xbd, 0xeb, 0x6c, 0x44, 0xbf, 0x80, 0x11, 0x69, 0xbe,
  0x5c, 0xe6, 0xbe, 0xbe, 0x2d, 0x09, 0xc6, 0x3c, 0x3c, 0xa0, 0xff, 0xbb,
  0xba, 0x89, 0x9d, 0x3d, 0x35, 0x02, 0x88, 0x3b, 0x34, 0xb6, 0x31, 0x3c,
  0xdc, 0xe1, 0x2c, 0xbe, 0xca, 0x81, 0x8d, 0xbc, 0xb8, 0x0d, 0x9a, 0x3d,
  0xdb, 0xbd, 0xcd, 0x3c, 0x36, 0x77, 0xdb, 0xbc, 0xb0, 0x2b, 0x6c, 0x3a,
  0x6b, 0xc7, 0xc0, 0x3d, 0xf6, 0x07, 0x44, 0x3c, 0x53, 0x53, 0x25, 0xbd,
  0x84, 0x7b, 0xc5, 0xbd, 0xf0, 0x80, 0x84, 0xbd, 0x06, 0xdf, 0x99, 0x3c,
  0x2f, 0x52, 0xcb, 0xbc, 0xa1, 0x9f, 0xb0, 0xbd, 0x69, 0x90, 0xa9, 0xbe,
  0x7f, 0x97, 0x67, 0x3d, 0xba, 0x91, 0x99, 0xbd, 0x04, 0xeb, 0x8e, 0x3e,
  0x39, 0x70, 0x6e, 0xbe, 0x49, 0xea, 0x2b, 0xbe, 0x39, 0x78, 0xb7, 0x3d,
  0x1e, 0x81, 0x0d, 0xbf, 0xbc, 0xe4, 0xa7, 0xbb, 0xb4, 0xe6, 0x36, 0xbe,
  0x01, 0xf6, 0x39, 0xbd, 0xac, 0x02, 0xb6, 0xbe, 0xb5, 0xf6, 0xa1, 0xbe,
  0xcf, 0x7c, 0x40, 0xbd, 0xc9, 0x8f, 0xa0, 0xbd, 0xe8, 0x9b, 0xc8, 0x3d,
  0x74, 0xf1, 0xa0, 0x3c, 0x22, 0x34, 0xbf, 0x3e, 0x9e, 0xdc, 0xe3, 0x3c,
  0xaa, 0x5e, 0x83, 0x3d, 0x71, 0xc4, 0x04, 0xbf, 0x73, 0x07, 0x53, 0x3e,
  0x40, 0xe3, 0x61, 0x3e, 0xf2, 0x51, 0x82, 0xbe, 0x5f, 0x20, 0x2a, 0xbe,
  0x72, 0x43, 0xe3, 0xbd, 0xf4, 0x04, 0x1c, 0x3d, 0xbe, 0x16, 0xca, 0xbd,
  0xcc, 0x85, 0x53, 0x3e, 0x2c, 0x36, 0xa4, 0x3d, 0xed, 0xa0, 0xcd, 0xbd,
  0x9f, 0xd6, 0x40, 0x3e, 0x68, 0x73, 0x86, 0x3e, 0xa7, 0x81, 0x95, 0x3e,
  0x36, 0xc1, 0x18, 0xbe, 0xf0, 0x58, 0x0b, 0x3d, 0x07, 0xda, 0x25, 0xbe,
  0xe5, 0xdf, 0x58, 0x3e, 0x97, 0xb1, 0x68, 0x3e, 0x34, 0x0d, 0x04, 0x3c,
  0x6c, 0x66, 0xb3, 0xbd, 0x07, 0x21, 0xb6, 0x3d, 0x0c, 0x79, 0x3b, 0xb9,
  0x81, 0x20, 0x06, 0xbe, 0xd3, 0x7f, 0x09, 0x3e, 0x92, 0xea, 0x04, 0x3e,
  0xd1, 0xa8, 0xa2, 0xbe, 0x61, 0x31, 0xfd, 0xbd, 0xae, 0x5c, 0x50, 0xbd,
  0x60, 0x24, 0x0c, 0x3d, 0x52, 0x62, 0xa8, 0xbe, 0xc8, 0xb1, 0x75, 0x3c,
  0xd2, 0x9c, 0xf7, 0xbd, 0x5b, 0x1f, 0xc5, 0x3d, 0x8a, 0x8e, 0x36, 0x3e,
  0x94, 0xcf, 0xc7, 0x3b, 0xab, 0x00, 0x46, 0xbe, 0xf9, 0x9c, 0x6e, 0xbc,
  0xef, 0x11, 0x00, 0xbd, 0xf1, 0x13, 0x99, 0xbd, 0xac, 0xac, 0x87, 0xbc,
  0x77, 0x8f, 0x0c, 0xbc, 0xa9, 0x5b, 0x60, 0xbe, 0x0e, 0xbe, 0xa0, 0x3e,
  0xea, 0xa1, 0x4d, 0x3e, 0x81, 0xa3, 0x3b, 0xbb, 0x38, 0x68, 0x28, 0xbe,
  0xea, 0x2e, 0x59, 0xbd, 0x00, 0x11, 0x67, 0xbe, 0xb0, 0x8a, 0x2e, 0x3d,
  0x01, 0x3c, 0x92, 0x3e, 0x1b, 0xf0, 0x2c, 0xbc, 0xc6, 0xd1, 0x74, 0xbe,
  0x99, 0x38, 0xa2, 0xbc, 0x88, 0xbb, 0x14, 0x3d, 0xb8, 0x86, 0x67, 0xbe,
  0x23, 0x6f, 0x60, 0x3c, 0x91, 0x81, 0x8c, 0x3d, 0x8c, 0x90, 0xa4, 0xbe,
  0x5c, 0x80, 0x21, 0xbe, 0x61, 0x57, 0x46, 0x3b, 0xce, 0x46, 0x97, 0x3e,
  0x6a, 0x2b, 0x50, 0xbe, 0x4e, 0xc4, 0x2f, 0xbe, 0x65, 0xdd, 0x0a, 0xbe,
  0x3d, 0xe6, 0x19, 0xbe, 0x24, 0x73, 0x21, 0x3e, 0x66, 0x79, 0x09, 0xbd,
  0x70, 0x6d, 0xc4, 0xbe, 0xe6, 0x15, 0x1b, 0x3e, 0xe6, 0x2d, 0x99, 0xbc,
  0x5d, 0x30, 0x49, 0xbe, 0x99, 0xe2, 0x9a, 0xbc, 0x7f, 0x02, 0xe6, 0x3d,
  0x01, 0xcf, 0x18, 0xbe, 0x18, 0x0c, 0x2a, 0x3e, 0x7d, 0xa1, 0x8a, 0xbd,
  0x14, 0xa8, 0xfc, 0x3c, 0x2b, 0xd5, 0x1d, 0xbe, 0x60, 0x86, 0x89, 0xbe,
  0xd7, 0x01, 0x9d, 0xbe, 0xb8, 0x5c, 0x8a, 0xbc, 0x5a, 0xee, 0xce, 0x3d,
  0xc3, 0x30, 0xfe, 0xbe, 0x9b, 0x61, 0x11, 0xbe, 0x63, 0xeb, 0xaa, 0xbe,
  0x54, 0x63, 0x83, 0xbc, 0x55, 0xe0, 0x80, 0xbe, 0x13, 0x81, 0xc9, 0xbe,
  0x1e, 0x9a, 0x23, 0x3d, 0x26, 0x58, 0xa9, 0xbc, 0x81, 0x35, 0x9a, 0xbe,
  0x18, 0x44, 0xb1, 0x3e, 0x71, 0x8a, 0xfb, 0x3c, 0x53, 0x39, 0x16, 0xbe,
  0xd6, 0x4e, 0x02, 0xbf, 0xda, 0x5e, 0x09, 0xbf, 0xd2, 0x2c, 0x91, 0xbe,
  0xe0, 0x19, 0x58, 0xbe, 0x95, 0xb5, 0xd4, 0xbb, 0xf8, 0x91, 0x3d, 0xbf,
  0xaf, 0x01, 0x92, 0xbe, 0x79, 0xf5, 0xf9, 0xbd, 0x3d, 0xbd, 0xd0, 0xbc,
  0xb1, 0x69, 0x80, 0x3e, 0x16, 0xbe, 0x2f, 0x3d, 0x77, 0x33, 0xf7, 0x39,
  0x61, 0x7d, 0xe0, 0xbe, 0x72, 0x20, 0x07, 0xbe, 0xb2, 0xa6, 0x11, 0xbe,
  0x05, 0x43, 0x1f, 0xbe, 0x51, 0x5f, 0xf1, 0xbd, 0x1a, 0x34, 0x48, 0x3e,
  0xba, 0xa4, 0x60, 0xbe, 0xc9, 0xdd, 0x04, 0xbe, 0x77, 0x28, 0x1c, 0xbc,
  0x5d, 0x0c, 0x92, 0xbd, 0x66, 0xe1, 0xd5, 0x3d, 0x2e, 0xac, 0x86, 0xbd,
  0xf8, 0x79, 0x9f, 0x3d, 0xc5, 0x1b, 0x9d, 0x3d, 0xe9, 0x65, 0x4e, 0xbd,
  0x2c, 0x22, 0x25, 0xbe, 0x79, 0x26, 0x44, 0x3d, 0x65, 0x68, 0x1f, 0xbe,
  0xf0, 0xf6, 0x4e, 0x3e, 0xbf, 0x76, 0x4f, 0xbd, 0x7a, 0x8c, 0x09, 0xbc,
  0x41, 0x31, 0x4a, 0x3e, 0x68, 0xe7, 0x83, 0xbb, 0x4a, 0xc1, 0x18, 0x3c,
  0x6c, 0xc6, 0xdb, 0xbb, 0x92, 0xe7, 0xbc, 0xbd, 0x03, 0x5f, 0xe9, 0xbd,
  0x3e, 0x9a, 0x5c, 0xbd, 0x1e, 0x9e, 0xe9, 0xbd, 0x74, 0x6f, 0x3b, 0xbe,
  0xaa, 0x78, 0xef, 0x3c, 0xe0, 0x67, 0x04, 0x3d, 0xe0, 0x12, 0x0d, 0x3e,
  0xbb, 0xff, 0x04, 0xbe, 0x37, 0x27, 0x57, 0xbd, 0x7a, 0x6f, 0x44, 0xbe,
  0x18, 0xbe, 0xc1, 0x3d, 0x67, 0xc4, 0xa8, 0xbd, 0x24, 0x45, 0xe2, 0x3d,
  0x26, 0xf2, 0x80, 0xbc, 0x92, 0x21, 0xb1, 0xbd, 0xc9, 0xf9, 0xde, 0xbd,
  0xd6, 0x7b, 0x81, 0xbe, 0xef, 0xce, 0xd5, 0xbd, 0x72, 0xfb, 0xf8, 0xbc,
  0xc7, 0x2d, 0x9a, 0xbe, 0x97, 0x2e, 0xb3, 0x3c, 0x7f, 0x7f, 0x1e, 0xbe,
  0x70, 0x97, 0xe7, 0x3d, 0xe8, 0x80, 0x44, 0xbd, 0x93, 0x77, 0x2c, 0x3e,
  0x1c, 0x78, 0x05, 0xbe, 0x9c, 0xf9, 0xe2, 0xbc, 0x99, 0x6c, 0x98, 0xbd,
  0x6d, 0xaf, 0xa9, 0xbd, 0x8c, 0x57, 0x34, 0xbd, 0x43, 0xca, 0x53, 0xbe,
  0x00, 0x45, 0xc2, 0xbc, 0x77, 0xb4, 0x2c, 0xbe, 0xc7, 0xbc, 0x1f, 0xbe,
  0xef, 0xeb, 0x28, 0xbe, 0xff, 0x00, 0x9e, 0xbd, 0x45, 0x8b, 0xf6, 0x3d,
  0xc4, 0x8a, 0x10, 0xbe, 0xe5, 0x82, 0xde, 0x3d, 0x19, 0x25, 0x90, 0x3e,
  0x01, 0x91, 0x5e, 0x3e, 0xb5, 0xad, 0x3d, 0xbe, 0x90, 0xaf, 0x6a, 0x3e,
  0x67, 0x5b, 0xfb, 0x3c, 0x17, 0x68, 0xb2, 0xb9, 0x42, 0x3b, 0x07, 0xbe,
  0x7a, 0xb3, 0x05, 0xbe, 0x25, 0x91, 0x8d, 0x3d, 0xc1, 0xad, 0x83, 0xbe,
  0xa2, 0xd8, 0xd3, 0xbd, 0x34, 0xeb, 0x5a, 0x3d, 0x72, 0x62, 0xbc, 0x3c,
  0xa5, 0xef, 0xb1, 0x3d, 0x2c, 0xbd, 0xaa, 0xbe, 0xd1, 0x6e, 0x94, 0xbd,
  0x30, 0x36, 0x04, 0x3e, 0x2f, 0x9c, 0x3b, 0x3d, 0xff, 0x52, 0x9c, 0xbd,
  0xf7, 0x36, 0x5a, 0x3e, 0xc9, 0x7f, 0x0f, 0x3e, 0xf8, 0xa4, 0x21, 0x3e,
  0x3c, 0x92, 0x02, 0xbe, 0x86, 0x7a, 0xb2, 0xbe, 0x6d, 0x07, 0x8f, 0x3d,
  0x88, 0x8b, 0xb9, 0x3e, 0x4c, 0xd8, 0x77, 0xbd, 0xda, 0x1d, 0x38, 0xbd,
  0x14, 0xb1, 0x91, 0x3e, 0x4b, 0xfa, 0x44, 0x3d, 0x56, 0xa7, 0x81, 0xbd,
  0x14, 0x97, 0x2c, 0xbd, 0xeb, 0x3c, 0x09, 0x3e, 0xd5, 0x13, 0xae, 0xbe,
  0x5b, 0x99, 0xb0, 0xbe, 0x6a, 0x61, 0x5f, 0xbe, 0x29, 0x6f, 0x3d, 0xbe,
  0xc2, 0xd2, 0xbb, 0xbe, 0x16, 0x27, 0x27, 0xbe, 0x79, 0x7f, 0xa0, 0x3d,
  0x94, 0xff, 0x3c, 0xbe, 0x52, 0x10, 0xa0, 0xbd, 0x57, 0xdb, 0x8e, 0xbd,
  0x82, 0x8d, 0x5c, 0xbd, 0x4f, 0x24, 0x01, 0x3e, 0x4b, 0x01, 0x9c, 0x3d,
  0x58, 0x28, 0x86, 0xbe, 0xce, 0xab, 0x32, 0xbe, 0xc0, 0x7a, 0x8d, 0xbd,
  0xf1, 0x7e, 0x98, 0xbe, 0xb4, 0x9c, 0x80, 0xbe, 0x9b, 0xd0, 0x0c, 0xbe,
  0x5c, 0xa4, 0x79, 0x3e, 0x76, 0xf3, 0x91, 0xbd, 0x12, 0x38, 0xef, 0x3c,
  0xee, 0x6e, 0x3c, 0x3e, 0x82, 0xe6, 0xb2, 0xbd, 0x2c, 0x4f, 0x6f, 0xbd,
  0xa6, 0x36, 0xc8, 0xbd, 0x83, 0x9a, 0x27, 0xbd, 0xd1, 0x36, 0xcb, 0xbe,
  0x4a, 0x8c, 0x92, 0xbd, 0xd2, 0xd7, 0x19, 0xbe, 0x1a, 0xd5, 0xb7, 0x3d,
  0x0c, 0x38, 0x76, 0xbd, 0xd7, 0x61, 0xe7, 0x3c, 0x04, 0x8c, 0x9a, 0xbe,
  0x73, 0x5e, 0x43, 0x3e, 0x01, 0x2c, 0x23, 0x3e, 0x32, 0xbb, 0xbb, 0xbd,
  0xb0, 0xce, 0xaf, 0x3d, 0x8a, 0xa5, 0x1e, 0xbe, 0x64, 0xf8, 0x17, 0xbc,
  0x5c, 0x7d, 0x38, 0xbe, 0xcc, 0x24, 0x8b, 0xbd, 0xe5, 0x3e, 0x17, 0xbe,
  0xd9, 0xd4, 0xd2, 0xbe, 0x5c, 0x32, 0xac, 0xbd, 0x50, 0xdb, 0x98, 0x3c,
  0x16, 0x7f, 0x3a, 0x3e, 0x6a, 0x36, 0x0c, 0xbe, 0xa6, 0xad, 0x45, 0xbd,
  0xa5, 0x3d, 0x00, 0xbe, 0x97, 0x0d, 0xb7, 0x3c, 0xc1, 0x62, 0xc9, 0xbd,
  0x97, 0x2d, 0x15, 0xbe, 0x48, 0x1e, 0x23, 0xbe, 0x93, 0xf9, 0xc8, 0xbd,
  0xa7, 0x02, 0x52, 0x3d, 0x0c, 0xe7, 0x86, 0xbd, 0xc7, 0x5b, 0x1a, 0xbe,
  0x8e, 0x4c, 0x10, 0x3e, 0x3e, 0xe3, 0x8b, 0xbe, 0x97, 0x2e, 0xcf, 0xbd,
  0x00, 0xcc, 0x1e, 0x3e, 0x01, 0xd4, 0xbb, 0x3d, 0xcf, 0xad, 0xb2, 0x3d,
  0xe0, 0x2b, 0x4f, 0x3e, 0xd5, 0xcd, 0x46, 0xbe, 0x5a, 0xb0, 0xf0, 0x3b,
  0x08, 0x01, 0xa6, 0x3c, 0xcb, 0xaa, 0x53, 0x3a, 0x7d, 0x62, 0x52, 0xbc,
  0x65, 0x87, 0xae, 0xbe, 0x1b, 0xc2, 0x04, 0x3e, 0x44, 0x11, 0x89, 0xbe,
  0x25, 0xe6, 0xf1, 0xbe, 0x2c, 0xd4, 0x91, 0x3c, 0x5c, 0x56, 0x35, 0xbf,
  0x81, 0xc2, 0x87, 0x3d, 0x9d, 0x95, 0xc6, 0x3d, 0x8a, 0x26, 0x28, 0xbe,
  0x4c, 0x7b, 0x23, 0x3e, 0xdd, 0x6c, 0x3a, 0x3d, 0xca, 0xfd, 0xa6, 0xbd,
  0x00, 0x39, 0xbc, 0xbe, 0x45, 0x93, 0xc0, 0xbe, 0x6e, 0x9d, 0xf0, 0x3d,
  0x18, 0xfe, 0xff, 0x3c, 0x0b, 0xd0, 0xc1, 0xbb, 0x46, 0x7a, 0x24, 0xbb,
  0xc6, 0x75, 0xbb, 0xbe, 0xb4, 0x69, 0xd5, 0xbd, 0x86, 0xe1, 0x83, 0x3d,
  0xaf, 0x1c, 0xc8, 0x3d, 0xe3, 0x30, 0x68, 0x3e, 0x96, 0xf8, 0xac, 0xbe,
  0xa6, 0xb3, 0xd6, 0xbd, 0xd7, 0x0d, 0x4d, 0x3d, 0xc8, 0x8b, 0x90, 0xbe,
  0x0e, 0xb7, 0xe6, 0x3d, 0xa3, 0x60, 0x08, 0x3e, 0x39, 0x99, 0x86, 0x3e,
  0x39, 0x88, 0x12, 0xbe, 0x31, 0xea, 0x1c, 0x3d, 0xaf, 0xcb, 0x49, 0x3d,
  0x62, 0x7d, 0x02, 0x3d, 0xc8, 0x77, 0x22, 0x3f, 0x73, 0x45, 0x32, 0xbd,
  0xa7, 0x5f, 0x16, 0x3b, 0xd9, 0x11, 0x61, 0xbd, 0xd6, 0x21, 0x89, 0x3d,
  0x96, 0x1e, 0x66, 0xbe, 0x1e, 0x46, 0x6f, 0xbe, 0xc2, 0xf8, 0x83, 0x3c,
  0xc6, 0x7c, 0x28, 0xbe, 0x4d, 0xc8, 0x4e, 0xbe, 0x7f, 0x48, 0x97, 0xbe,
  0x88, 0x9e, 0x8b, 0xbe, 0x1b, 0xea, 0x85, 0xbd, 0x48, 0x75, 0x9e, 0xbb,
  0x5f, 0x9f, 0xde, 0xbc, 0x97, 0x57, 0xe4, 0xbe, 0x52, 0x4f, 0x54, 0xbe,
  0x5b, 0xab, 0x62, 0x3d, 0x5e, 0xa0, 0xd7, 0xbd, 0x60, 0x08, 0xbd, 0xbe,
  0x4d, 0xfb, 0x9f, 0x3d, 0x56, 0x31, 0x20, 0xbe, 0x15, 0x1f, 0x91, 0xbe,
  0xb5, 0xbd, 0x30, 0x3e, 0xbd, 0x65, 0x8f, 0xbd, 0x3a, 0xf5, 0xbc, 0x3d,
  0x34, 0xae, 0x00, 0x3d, 0x75, 0xef, 0x8b, 0xbd, 0xe4, 0x47, 0x12, 0x3e,
  0xe8, 0x95, 0x95, 0x3d, 0xbd, 0xdd, 0x31, 0xbe, 0xe3, 0xff, 0x2c, 0x3d,
  0x37, 0xbd, 0xa6, 0xbe, 0x64, 0xa9, 0x48, 0x3c, 0x90, 0xae, 0x9a, 0xbc,
  0x0f, 0xa0, 0x61, 0x3d, 0x53, 0x5e, 0x01, 0x3e, 0xf7, 0xf1, 0x61, 0xbe,
  0x9e, 0x7d, 0x11, 0x3e, 0x69, 0xfc, 0xc2, 0x3e, 0x26, 0xc1, 0x90, 0x3e,
  0x16, 0x92, 0xe4, 0x3d, 0x13, 0xe7, 0xa0, 0x3d, 0x77, 0x69, 0xe6, 0x3d,
  0x1b, 0x7f, 0x87, 0x3e, 0xc6, 0xd2, 0x55, 0x3d, 0x15, 0x29, 0x99, 0xbe,
  0x78, 0x7e, 0x80, 0xbc, 0xe0, 0x88, 0x39, 0xbc, 0xf6, 0x29, 0x92, 0x3d,
  0x70, 0xdc, 0x70, 0xbc, 0xde, 0x47, 0x7e, 0xbe, 0x45, 0x24, 0x5f, 0x3e,
  0x9b, 0xe1, 0x89, 0xbe, 0xfe, 0xeb, 0x8e, 0x3c, 0xa9, 0xc6, 0x68, 0x3d,
  0xb0, 0xba, 0xbb, 0x3d, 0x75, 0xe1, 0x82, 0x3b, 0xa0, 0x94, 0x35, 0x3c,
  0x6e, 0x03, 0xbb, 0x3d, 0x17, 0xc0, 0x93, 0x3e, 0x74, 0x30, 0xfc, 0x3c,
  0x43, 0x8d, 0x63, 0x3d, 0xcb, 0x04, 0x00, 0xbd, 0x37, 0xc8, 0xab, 0x3d,
  0xb3, 0x51, 0xfb, 0x3c, 0x83, 0x6c, 0x09, 0x3e, 0x59, 0x4d, 0x4f, 0xbe,
  0xe0, 0xa0, 0x1b, 0xbb, 0x5a, 0x17, 0xd1, 0xbe, 0xf3, 0xed, 0xc2, 0x3d,
  0x1f, 0x1d, 0xae, 0x3d, 0xbb, 0x45, 0x1c, 0x3e, 0xf5, 0x10, 0x49, 0xbd,
  0xce, 0x80, 0x31, 0x3d, 0xb3, 0x4e, 0x99, 0x3d, 0x47, 0x3e, 0x88, 0x3e,
  0x4f, 0xc9, 0x44, 0xbd, 0x14, 0xd3, 0xdb, 0xbd, 0xee, 0xf2, 0xa1, 0x3c,
  0xdb, 0xee, 0x6e, 0xbd, 0x46, 0x46, 0x8c, 0xbd, 0xfb, 0xea, 0xa3, 0x3d,
  0x52, 0x97, 0x2f, 0xbe, 0x80, 0x36, 0xa5, 0xbd, 0x7b, 0x7b, 0xe2, 0xbe,
  0x07, 0xf6, 0x3e, 0x3d, 0x55, 0x04, 0xb1, 0x3d, 0xd1, 0xbb, 0xc0, 0xbd,
  0x37, 0x36, 0x0e, 0xbd, 0x62, 0x72, 0x4d, 0x3e, 0xbb, 0xe2, 0x44, 0x3e,
  0x06, 0x32, 0xd6, 0xbd, 0xa6, 0xb5, 0xef, 0xbe, 0x54, 0x90, 0x08, 0xbe,
  0xa7, 0x68, 0x29, 0x3d, 0xa2, 0x57, 0x09, 0x3c, 0x04, 0x33, 0x5d, 0x3d,
  0x75, 0x11, 0x51, 0xbe, 0x63, 0x9e, 0x7a, 0xbe, 0xdb, 0xe7, 0x4a, 0xbe,
  0x65, 0x4e, 0xbd, 0xbe, 0xf6, 0x8c, 0x83, 0x3e, 0xe3, 0x4d, 0x4d, 0x3d,
  0x0a, 0xaa, 0xe5, 0xbc, 0xa5, 0x20, 0x14, 0x3e, 0x2b, 0x67, 0xc7, 0x3d,
  0x7d, 0x90, 0xa1, 0x3d, 0x46, 0x41, 0x83, 0xbe, 0x7f, 0x31, 0x03, 0xbe,
  0xd0, 0xb1, 0x81, 0xbc, 0xab, 0x0c, 0xd0, 0x3d, 0x95, 0x4f, 0x76, 0xbd,
  0xd8, 0xe9, 0x7d, 0xbd, 0x23, 0x7c, 0x1c, 0x3d, 0x0e, 0x6a, 0x2f, 0xbd,
  0x65, 0x0c, 0x22, 0xbe, 0x10, 0x79, 0x80, 0xbd, 0x8c, 0x84, 0xda, 0xbd,
  0xc1, 0x76, 0x82, 0xbe, 0x3a, 0xbf, 0xb6, 0x3e, 0xc1, 0x92, 0x8f, 0x3d,
  0x36, 0x8e, 0x02, 0xbb, 0xf0, 0x61, 0x07, 0xbe, 0xc6, 0x16, 0xbd, 0x3d,
  0xc5, 0x5e, 0x13, 0x3e, 0x33, 0xb2, 0x34, 0xbe, 0x73, 0x5e, 0xa0, 0xbe,
  0x27, 0x55, 0xfc, 0xbc, 0x88, 0x1a, 0x64, 0x3b, 0xef, 0x9c, 0x59, 0x3d,
  0x0c, 0xdf, 0x0a, 0xbe, 0xf6, 0x91, 0x95, 0x3d, 0xcd, 0x5e, 0xb6, 0x3d,
  0xff, 0xdd, 0xe3, 0x3d, 0x4f, 0xa8, 0xa7, 0xbc, 0xec, 0x21, 0x89, 0x3e,
  0x4a, 0xbd, 0x6b, 0xbd, 0x6c, 0xbe, 0xc6, 0x3d, 0x21, 0x5a, 0xa0, 0xbe,
  0x2a, 0xd9, 0x37, 0x3d, 0x59, 0x53, 0x94, 0x3d, 0xcb, 0xc7, 0xcc, 0xbd,
  0xaa, 0xcc, 0x11, 0xbe, 0x1c, 0xa2, 0xc8, 0xbd, 0xd0, 0xf8, 0x00, 0x3c,
  0xb8, 0xc3, 0x85, 0xbc, 0x30, 0xe2, 0x36, 0xbd, 0x7f, 0x01, 0x18, 0x3d,
  0xb9, 0xe6, 0x4d, 0xbe, 0x18, 0x4a, 0x61, 0x3e, 0x48, 0xb5, 0x21, 0x3e,
  0x8d, 0x3e, 0x27, 0x3e, 0xce, 0x69, 0xef, 0xbb, 0xc6, 0x9b, 0x51, 0x3c,
  0xab, 0xce, 0x31, 0x3e, 0xc5, 0x61, 0x9f, 0x3e, 0x91, 0x08, 0x0e, 0x3e,
  0xad, 0x38, 0x05, 0xbe, 0x73, 0xc0, 0xd8, 0xbc, 0x62, 0x50, 0x05, 0xbe,
  0xe4, 0x19, 0x58, 0xbd, 0xaa, 0x24, 0xe7, 0xbe, 0x3a, 0xdb, 0x54, 0x3e,
  0x8b, 0x81, 0x31, 0x3c, 0x4a, 0x61, 0xf8, 0xbe, 0x76, 0xb8, 0xe1, 0x3d,
  0x70, 0x24, 0x44, 0x3d, 0x2e, 0x59, 0x3a, 0xbe, 0x43, 0x43, 0x85, 0xbd,
  0xf2, 0x82, 0x48, 0xbd, 0xdc, 0x6d, 0xf8, 0xbd, 0x29, 0xa2, 0x9e, 0xbd,
  0x81, 0x1f, 0x49, 0x3e, 0x9d, 0x8b, 0x0b, 0xbe, 0x91, 0x95, 0x25, 0xbe,
  0x31, 0x8e, 0xf5, 0xbd, 0x51, 0x0f, 0x88, 0xbd, 0xda, 0x32, 0x04, 0xbe,
  0x4b, 0x1a, 0x46, 0x3d, 0x68, 0xb5, 0xd8, 0xbc, 0x6f, 0x7f, 0xdc, 0xbe,
  0x8e, 0x63, 0x00, 0x3e, 0x94, 0x3a, 0x4a, 0x3e, 0x05, 0x18, 0x55, 0xbc,
  0x2d, 0xea, 0xa4, 0xbc, 0x39, 0x3b, 0xb5, 0xbd, 0x58, 0xdc, 0x9e, 0xbd,
  0xa4, 0xc0, 0xa3, 0x3e, 0xdb, 0x30, 0x46, 0x3e, 0x45, 0xae, 0x69, 0xbe,
  0x0f, 0xf5, 0x84, 0xbe, 0x62, 0x5e, 0x53, 0xbc, 0x5c, 0x91, 0xac, 0xbc,
  0xf5, 0xbb, 0xc7, 0x3d, 0xfc, 0xf0, 0xde, 0x3e, 0x5d, 0x92, 0x46, 0x3b,
  0xf1, 0x84, 0x3e, 0xbe, 0x16, 0x9a, 0x0e, 0x3b, 0xfb, 0xa7, 0x14, 0x3e,
  0x4a, 0x45, 0xf9, 0x3d, 0x12, 0x9a, 0x6e, 0x3c, 0xfb, 0x7c, 0x64, 0xbd,
  0x2d, 0x62, 0x44, 0x3d, 0x87, 0x96, 0xc3, 0x3d, 0xc6, 0xe7, 0x35, 0x3e,
  0x57, 0x0a, 0x90, 0xbd, 0xfd, 0xa8, 0xa1, 0xbe, 0x68, 0x9e, 0xa0, 0xbe,
  0x36, 0x05, 0x27, 0xbc, 0x9c, 0x13, 0xfd, 0x3d, 0x86, 0x57, 0x9a, 0x3e,
  0x69, 0x33, 0xe4, 0xbc, 0xf0, 0x89, 0xdc, 0xbd, 0x74, 0xab, 0x44, 0x3d,
  0x77, 0x2d, 0x86, 0xbd, 0x04, 0xa1, 0x11, 0x3e, 0xef, 0x8c, 0x83, 0xbe,
  0x17, 0xe4, 0x51, 0x3e, 0x98, 0x02, 0x52, 0xbd, 0x19, 0x52, 0xd7, 0x3e,
  0xe5, 0x60, 0xf3, 0x3d, 0xfb, 0x7b, 0x5a, 0xbd, 0xa8, 0x02, 0x4a, 0x39,
  0x18, 0x0e, 0x96, 0xbe, 0x51, 0xb3, 0x6c, 0xbc, 0xa3, 0xbf, 0xda, 0xbc,
  0x0e, 0x93, 0x96, 0x3e, 0x8c, 0x1f, 0x59, 0x3d, 0xf4, 0x1a, 0x38, 0xbd,
  0xb4, 0xe0, 0x2e, 0xbe, 0x83, 0xa6, 0x5c, 0x3e, 0xbc, 0x50, 0x74, 0xbe,
  0x9b, 0x45, 0xe4, 0xbc, 0xdd, 0xa1, 0xa0, 0xbe, 0xb1, 0xb6, 0x81, 0xbe,
  0x12, 0xfd, 0xf5, 0xbb, 0x0c, 0x81, 0xb4, 0xbe, 0x08, 0xa1, 0x97, 0x3c,
  0x98, 0x32, 0x07, 0xbf, 0x76, 0x14, 0x1a, 0x3e, 0x1c, 0x57, 0x8f, 0xbd,
  0x84, 0x56, 0x18, 0x3e, 0xe6, 0xe3, 0xa6, 0x3e, 0x0d, 0xed, 0x78, 0x3c,
  0x6e, 0xdb, 0x74, 0xbe, 0x1e, 0x93, 0x3d, 0xbe, 0x37, 0x85, 0x58, 0x3d,
  0xd6, 0x18, 0x05, 0xbe, 0xb0, 0x49, 0xfc, 0x3c, 0xe3, 0x6d, 0xa4, 0x3c,
  0x5e, 0xd8, 0xce, 0x3d, 0x76, 0x66, 0x26, 0xbe, 0xec, 0x77, 0x02, 0x3d,
  0x34, 0x30, 0x76, 0x3c, 0x63, 0x91, 0x6d, 0xbe, 0xdd, 0x20, 0x38, 0x3f,
  0x7e, 0x81, 0x46, 0x3e, 0x67, 0xcb, 0xbe, 0xbe, 0xc0, 0xfe, 0x7f, 0x3e,
  0x5c, 0x30, 0x77, 0xbc, 0x9d, 0xc0, 0xcc, 0xbe, 0x1c, 0xe5, 0x7f, 0x3d,
  0x74, 0xc9, 0x09, 0xbe, 0xef, 0x4d, 0x8c, 0xbd, 0x21, 0xeb, 0xeb, 0xbc,
  0x2c, 0x14, 0x04, 0x3d, 0x96, 0x5f, 0xa1, 0x3d, 0xd6, 0x0d, 0x1b, 0xbe,
  0x0d, 0x16, 0x76, 0xbd, 0x7d, 0xea, 0xe3, 0xbc, 0xb5, 0x79, 0x02, 0x3d,
  0xbc, 0xfd, 0x87, 0x3f, 0xcc, 0xa4, 0x04, 0xbe, 0x05, 0xef, 0x9b, 0xbe,
  0x14, 0xbb, 0x04, 0x3f, 0xd7, 0xd7, 0xf8, 0xbd, 0x1a, 0x60, 0xdd, 0xbd,
  0xb0, 0xfc, 0x11, 0x3e, 0x43, 0x5b, 0x94, 0xbd, 0x9d, 0xc7, 0xec, 0xbd,
  0xcf, 0x80, 0x43, 0xbd, 0x93, 0x2b, 0x17, 0xbc, 0x90, 0x8c, 0xe1, 0xbc,
  0xac, 0x08, 0xc8, 0xbd, 0xca, 0x11, 0xe8, 0xbc, 0x3b, 0x8c, 0xb5, 0xbc,
  0x5c, 0xc4, 0x9e, 0xbc, 0x68, 0x9a, 0x80, 0x3f, 0x2c, 0xbd, 0x04, 0xbe,
  0x63, 0x5f, 0x35, 0xbe, 0xf6, 0x02, 0xf1, 0x3c, 0xf6, 0xea, 0xbc, 0xbc,
  0xbe, 0x4d, 0x9f, 0xbe, 0xdb, 0x1f, 0xc4, 0x3c, 0x75, 0x2b, 0x07, 0x3e,
  0xd5, 0xcb, 0x50, 0xbd, 0x8e, 0xfe, 0xa1, 0xbb, 0x63, 0x2e, 0xd0, 0x3c,
  0xe6, 0x32, 0x79, 0xbd, 0x05, 0x8a, 0xb9, 0x3d, 0x15, 0x92, 0x97, 0xbe,
  0xf5, 0x36, 0x90, 0x3c, 0xf2, 0x78, 0xe8, 0x3c, 0x7d, 0xf1, 0x8e, 0x3f,
  0xa7, 0xd9, 0x41, 0xbe, 0x5e, 0x41, 0xcf, 0x3b, 0x5a, 0xcb, 0x92, 0x3e,
  0x73, 0x0f, 0xf7, 0xbc, 0x0b, 0x56, 0x40, 0xbe, 0x3c, 0x8a, 0x46, 0xbc,
  0x0e, 0xf4, 0xb7, 0x3d, 0x64, 0xb5, 0x58, 0x3d, 0x69, 0x14, 0x94, 0x3b,
  0x3b, 0xd0, 0xad, 0x3b, 0x19, 0x32, 0xb1, 0xbd, 0x77, 0x4c, 0x8d, 0x3e,
  0xa3, 0xbb, 0x18, 0xbe, 0xc4, 0xb0, 0xb2, 0xbd, 0xfc, 0xaa, 0xfe, 0x3c,
  0x51, 0x78, 0x68, 0x3f, 0x7b, 0x7d, 0xf7, 0xbd, 0x8d, 0xbf, 0xc9, 0x3e,
  0x47, 0xfd, 0x64, 0x3e, 0xda, 0x79, 0xad, 0x3d, 0x42, 0x5c, 0x84, 0xbe,
  0xd0, 0x3e, 0xea, 0xbb, 0xcd, 0x57, 0xef, 0x3c, 0xe0, 0x4c, 0x1a, 0x3d,
  0x4d, 0xc3, 0xc6, 0x3b, 0xc4, 0x72, 0x14, 0xbd, 0xb7, 0x5c, 0x60, 0x3e,
  0x4e, 0xd6, 0x97, 0x3e, 0x4f, 0xad, 0xd7, 0x3d, 0x92, 0x52, 0xaf, 0xbd,
  0x9b, 0x40, 0xdf, 0x3c, 0x9c, 0xa7, 0x7a, 0x3e, 0xb8, 0xbe, 0xe5, 0x3d,
  0x4b, 0x4e, 0xea, 0x3d, 0x2b, 0x5e, 0x08, 0x3d, 0xec, 0x7d, 0xa3, 0x3d,
  0x74, 0xca, 0x82, 0x3d, 0x42, 0xfe, 0xff, 0xff, 0x10, 0x00, 0x00, 0x00,
  0x05, 0x00, 0x00, 0x00, 0x14, 0x00, 0x00, 0x00, 0x2c, 0x00, 0x00, 0x00,
  0x02, 0x00, 0x00, 0x00, 0x10, 0x00, 0x00, 0x00, 0x70, 0x00, 0x00, 0x00,
  0x17, 0x00, 0x00, 0x00, 0x73, 0x65, 0x71, 0x75, 0x65, 0x6e, 0x74, 0x69,
  0x61, 0x6c, 0x2f, 0x64, 0x65, 0x6e, 0x73, 0x65, 0x2f, 0x4d, 0x61, 0x74,
  0x4d, 0x75, 0x6c, 0x00, 0x30, 0xfe, 0xff, 0xff, 0x26, 0xff, 0xff, 0xff,
  0x04, 0x00, 0x00, 0x00, 0x08, 0x00, 0x00, 0x00, 0xff, 0xff, 0xff, 0xff,
  0x70, 0x00, 0x00, 0x00, 0x00, 0x00, 0x0e, 0x00, 0x18, 0x00, 0x08, 0x00,
  0x07, 0x00, 0x0c, 0x00, 0x10, 0x00, 0x14, 0x00, 0x0e, 0x00, 0x00, 0x00,
  0x00, 0x00, 0x00, 0x02, 0x10, 0x00, 0x00, 0x00, 0x04, 0x00, 0x00, 0x00,
  0x10, 0x00, 0x00, 0x00, 0x2c, 0x00, 0x00, 0x00, 0x01, 0x00, 0x00, 0x00,
  0x02, 0x00, 0x00, 0x00, 0x18, 0x00, 0x00, 0x00, 0x73, 0x65, 0x71, 0x75,
  0x65, 0x6e, 0x74, 0x69, 0x61, 0x6c, 0x2f, 0x66, 0x6c, 0x61, 0x74, 0x74,
  0x65, 0x6e, 0x2f, 0x43, 0x6f, 0x6e, 0x73, 0x74, 0x00, 0x00, 0x00, 0x00,
  0x98, 0xfe, 0xff, 0xff, 0x8e, 0xff, 0xff, 0xff, 0x04, 0x00, 0x00, 0x00,
  0x14, 0x00, 0x00, 0x00, 0xe6, 0x96, 0x60, 0xbf, 0x74, 0x01, 0x7d, 0xc0,
  0x12, 0x71, 0x07, 0xc0, 0x14, 0x53, 0x2f, 0x3c, 0xa1, 0xf4, 0x0e, 0x40,
  0x0a, 0xff, 0xff, 0xff, 0x10, 0x00, 0x00, 0x00, 0x03, 0x00, 0x00, 0x00,
  0x10, 0x00, 0x00, 0x00, 0x3c, 0x00, 0x00, 0x00, 0x01, 0x00, 0x00, 0x00,
  0x05, 0x00, 0x00, 0x00, 0x29, 0x00, 0x00, 0x00, 0x73, 0x65, 0x71, 0x75,
  0x65, 0x6e, 0x74, 0x69, 0x61, 0x6c, 0x2f, 0x64, 0x65, 0x6e, 0x73, 0x65,
  0x5f, 0x31, 0x2f, 0x42, 0x69, 0x61, 0x73, 0x41, 0x64, 0x64, 0x2f, 0x52,
  0x65, 0x61, 0x64, 0x56, 0x61, 0x72, 0x69, 0x61, 0x62, 0x6c, 0x65, 0x4f,
  0x70, 0x00, 0x00, 0x00, 0x60, 0xff, 0xff, 0xff, 0x00, 0x00, 0x06, 0x00,
  0x08, 0x00, 0x04, 0x00, 0x06, 0x00, 0x00, 0x00, 0x04, 0x00, 0x00, 0x00,
  0x40, 0x00, 0x00, 0x00, 0x60, 0x7b, 0x19, 0xc0, 0x1b, 0xf1, 0x40, 0x3f,
  0xfd, 0x1b, 0x01, 0x40, 0xa9, 0x4f, 0xa0, 0xbf, 0x9f, 0x4b, 0x8f, 0x3f,
  0xa8, 0x2c, 0xd1, 0x3f, 0x69, 0xbd, 0xb3, 0xbd, 0x3b, 0xce, 0xf8, 0xbf,
  0x48, 0x1e, 0xd1, 0xbf, 0x9d, 0x4c, 0x60, 0x40, 0x37, 0xa0, 0xf9, 0xbf,
  0x83, 0xb6, 0x2c, 0x3f, 0x23, 0xbd, 0xe6, 0x3f, 0x20, 0xe3, 0x1e, 0xbf,
  0xcc, 0x96, 0x94, 0xbf, 0x2d, 0xab, 0xd9, 0xbb, 0xae, 0xff, 0xff, 0xff,
  0x10, 0x00, 0x00, 0x00, 0x02, 0x00, 0x00, 0x00, 0x10, 0x00, 0x00, 0x00,
  0x3c, 0x00, 0x00, 0x00, 0x01, 0x00, 0x00, 0x00, 0x10, 0x00, 0x00, 0x00,
  0x27, 0x00, 0x00, 0x00, 0x73, 0x65, 0x71, 0x75, 0x65, 0x6e, 0x74, 0x69,
  0x61, 0x6c, 0x2f, 0x64, 0x65, 0x6e, 0x73, 0x65, 0x2f, 0x42, 0x69, 0x61,
  0x73, 0x41, 0x64, 0x64, 0x2f, 0x52, 0x65, 0x61, 0x64, 0x56, 0x61, 0x72,
  0x69, 0x61, 0x62, 0x6c, 0x65, 0x4f, 0x70, 0x00, 0x04, 0x00, 0x06, 0x00,
  0x04, 0x00, 0x00, 0x00, 0x00, 0x00, 0x0e, 0x00, 0x14, 0x00, 0x04, 0x00,
  0x00, 0x00, 0x08, 0x00, 0x0c, 0x00, 0x10, 0x00, 0x0e, 0x00, 0x00, 0x00,
  0x10, 0x00, 0x00, 0x00, 0x01, 0x00, 0x00, 0x00, 0x1c, 0x00, 0x00, 0x00,
  0x2c, 0x00, 0x00, 0x00, 0x04, 0x00, 0x00, 0x00, 0x01, 0x00, 0x00, 0x00,
  0x40, 0x00, 0x00, 0x00, 0x03, 0x00, 0x00, 0x00, 0x01, 0x00, 0x00, 0x00,
  0x0c, 0x00, 0x00, 0x00, 0x63, 0x6f, 0x6e, 0x76, 0x32, 0x64, 0x5f, 0x69,
  0x6e, 0x70, 0x75, 0x74, 0x00, 0x00, 0x00, 0x00, 0xfc, 0xff, 0xff, 0xff,
  0x04, 0x00, 0x04, 0x00, 0x04, 0x00, 0x00, 0x00
};


unsigned int model_tflite_len = 12452;// Fill the int in `src/model.cc` here