#include "magic_wand_model_data.h"


// We need to keep the data array aligned on some architectures.

#ifdef __has_attribute

#define HAVE_ATTRIBUTE(x) __has_attribute(x)

#else

#define HAVE_ATTRIBUTE(x) 0

#endif

#if HAVE_ATTRIBUTE(aligned) || (defined(__GNUC__) && !defined(__clang__))

#define DATA_ALIGN_ATTRIBUTE __attribute__((aligned(4)))

#else

#define DATA_ALIGN_ATTRIBUTE

#endif


const unsigned char g_magic_wand_model_data[] DATA_ALIGN_ATTRIBUTE = {

  // Paste the data of the char array in `src/model.cc` here
  0x08, 0x00, 0x00, 0x00, 0x54, 0x46, 0x4c, 0x33, 0x62, 0xff, 0xff, 0xff,
  0x03, 0x00, 0x00, 0x00, 0x10, 0x00, 0x00, 0x00, 0x24, 0x00, 0x00, 0x00,
  0x78, 0x00, 0x00, 0x00, 0x24, 0x00, 0x00, 0x00, 0x05, 0x00, 0x00, 0x00,
  0x78, 0x05, 0x00, 0x00, 0xb0, 0x04, 0x00, 0x00, 0xe0, 0x02, 0x00, 0x00,
  0x60, 0x02, 0x00, 0x00, 0x54, 0x01, 0x00, 0x00, 0x01, 0x00, 0x00, 0x00,
  0x78, 0x00, 0x00, 0x00, 0x13, 0x00, 0x00, 0x00, 0xd4, 0x2f, 0x00, 0x00,
  0xd0, 0x2f, 0x00, 0x00, 0xdc, 0x2e, 0x00, 0x00, 0x68, 0x2e, 0x00, 0x00,
  0xfc, 0x2d, 0x00, 0x00, 0xac, 0x11, 0x00, 0x00, 0x98, 0x10, 0x00, 0x00,
  0xbc, 0x0e, 0x00, 0x00, 0x60, 0x06, 0x00, 0x00, 0xfc, 0x05, 0x00, 0x00,
  0x78, 0x05, 0x00, 0x00, 0xa8, 0x2f, 0x00, 0x00, 0xa4, 0x2f, 0x00, 0x00,
  0xa0, 0x2f, 0x00, 0x00, 0x9c, 0x2f, 0x00, 0x00, 0x98, 0x2f, 0x00, 0x00,
  0x94, 0x2f, 0x00, 0x00, 0x90, 0x2f, 0x00, 0x00, 0x8c, 0x2f, 0x00, 0x00,
  0x0f, 0x00, 0x00, 0x00, 0x4d, 0x4c, 0x49, 0x52, 0x20, 0x43, 0x6f, 0x6e,
  0x76, 0x65, 0x72, 0x74, 0x65, 0x64, 0x2e, 0x00, 0x00, 0x00, 0x0e, 0x00,
  0x18, 0x00, 0x04, 0x00, 0x08, 0x00, 0x0c, 0x00, 0x10, 0x00, 0x14, 0x00,
  0x0e, 0x00, 0x00, 0x00, 0x14, 0x00, 0x00, 0x00, 0x5c, 0x00, 0x00, 0x00,
  0x60, 0x00, 0x00, 0x00, 0x64, 0x00, 0x00, 0x00, 0x84, 0x00, 0x00, 0x00,
  0x12, 0x00, 0x00, 0x00, 0x04, 0x2f, 0x00, 0x00, 0xa0, 0x2e, 0x00, 0x00,
  0xf8, 0x2d, 0x00, 0x00, 0x98, 0x2d, 0x00, 0x00, 0x30, 0x2d, 0x00, 0x00,
  0xdc, 0x10, 0x00, 0x00, 0xc0, 0x0f, 0x00, 0x00, 0xe4, 0x0d, 0x00, 0x00,
  0xa0, 0x05, 0x00, 0x00, 0x3c, 0x05, 0x00, 0x00, 0xb0, 0x04, 0x00, 0x00,
  0xe8, 0x03, 0x00, 0x00, 0x38, 0x03, 0x00, 0x00, 0xa4, 0x02, 0x00, 0x00,
  0x10, 0x02, 0x00, 0x00, 0x90, 0x01, 0x00, 0x00, 0xfc, 0x00, 0x00, 0x00,
  0x80, 0x00, 0x00, 0x00, 0x01, 0x00, 0x00, 0x00, 0x00, 0x00, 0x00, 0x00,
  0x01, 0x00, 0x00, 0x00, 0x11, 0x00, 0x00, 0x00, 0x08, 0x00, 0x00, 0x00,
  0x1c, 0x04, 0x00, 0x00, 0x58, 0x03, 0x00, 0x00, 0xc8, 0x02, 0x00, 0x00,
  0x24, 0x02, 0x00, 0x00, 0xac, 0x01, 0x00, 0x00, 0x10, 0x01, 0x00, 0x00,
  0x94, 0x00, 0x00, 0x00, 0x10, 0x00, 0x00, 0x00, 0x04, 0x00, 0x00, 0x00,
  0x6d, 0x61, 0x69, 0x6e, 0x00, 0x00, 0x00, 0x00, 0x8e, 0xff, 0xff, 0xff,
  0x00, 0x00, 0x00, 0x09, 0x04, 0x00, 0x00, 0x00, 0x1c, 0x00, 0x00, 0x00,
  0x10, 0x00, 0x00, 0x00, 0x04, 0x00, 0x00, 0x00, 0x4e, 0xd2, 0xff, 0xff,
  0x00, 0x00, 0x80, 0x3f, 0x01, 0x00, 0x00, 0x00, 0x11, 0x00, 0x00, 0x00,
  0x01, 0x00, 0x00, 0x00, 0x10, 0x00, 0x00, 0x00, 0xf6, 0xfb, 0xff, 0xff,
  0x00, 0x00, 0x00, 0x19, 0x01, 0x00, 0x00, 0x00, 0xce, 0xd1, 0xff, 0xff,
  0x10, 0x00, 0x00, 0x00, 0x12, 0x00, 0x00, 0x00, 0x14, 0x00, 0x00, 0x00,
  0x20, 0x00, 0x00, 0x00, 0x02, 0x00, 0x00, 0x00, 0x01, 0x00, 0x00, 0x00,
  0x03, 0x00, 0x00, 0x00, 0x08, 0x00, 0x00, 0x00, 0x49, 0x64, 0x65, 0x6e,
  0x74, 0x69, 0x74, 0x79, 0x00, 0x00, 0x00, 0x00, 0x08, 0xd2, 0xff, 0xff,
  0x00, 0x00, 0x0e, 0x00, 0x18, 0x00, 0x08, 0x00, 0x0c, 0x00, 0x10, 0x00,
  0x07, 0x00, 0x14, 0x00, 0x0e, 0x00, 0x00, 0x00, 0x00, 0x00, 0x00, 0x08,
  0x03, 0x00, 0x00, 0x00, 0x18, 0x00, 0x00, 0x00, 0x0c, 0x00, 0x00, 0x00,
  0x04, 0x00, 0x00, 0x00, 0xdc, 0xd1, 0xff, 0xff, 0x01, 0x00, 0x00, 0x00,
  0x10, 0x00, 0x00, 0x00, 0x03, 0x00, 0x00, 0x00, 0x0f, 0x00, 0x00, 0x00,
  0x05, 0x00, 0x00, 0x00, 0x02, 0x00, 0x00, 0x00, 0x46, 0xd2, 0xff, 0xff,
  0x10, 0x00, 0x00, 0x00, 0x11, 0x00, 0x00, 0x00, 0x14, 0x00, 0x00, 0x00,
  0x30, 0x00, 0x00, 0x00, 0x02, 0x00, 0x00, 0x00, 0x01, 0x00, 0x00, 0x00,
  0x03, 0x00, 0x00, 0x00, 0x1a, 0x00, 0x00, 0x00, 0x73, 0x65, 0x71, 0x75,
  0x65, 0x6e, 0x74, 0x69, 0x61, 0x6c, 0x2f, 0x64, 0x65, 0x6e, 0x73, 0x65,
  0x5f, 0x31, 0x2f, 0x42, 0x69, 0x61, 0x73, 0x41, 0x64, 0x64, 0x00, 0x00,
  0x38, 0xd2, 0xff, 0xff, 0xd6, 0xfd, 0xff, 0xff, 0x00, 0x00, 0x00, 0x08,
  0x03, 0x00, 0x00, 0x00, 0x24, 0x00, 0x00, 0x00, 0x18, 0x00, 0x00, 0x00,
  0x0c, 0x00, 0x00, 0x00, 0x00, 0x00, 0x06, 0x00, 0x08, 0x00, 0x07, 0x00,
  0x06, 0x00, 0x00, 0x00, 0x00, 0x00, 0x00, 0x01, 0x01, 0x00, 0x00, 0x00,
  0x0f, 0x00, 0x00, 0x00, 0x03, 0x00, 0x00, 0x00, 0x0e, 0x00, 0x00, 0x00,
  0x04, 0x00, 0x00, 0x00, 0x01, 0x00, 0x00, 0x00, 0xfe, 0xfc, 0xff, 0xff,
  0x00, 0x00, 0x00, 0x09, 0x01, 0x00, 0x00, 0x00, 0xd6, 0xd2, 0xff, 0xff,
  0x10, 0x00, 0x00, 0x00, 0x10, 0x00, 0x00, 0x00, 0x14, 0x00, 0x00, 0x00,
  0x2c, 0x00, 0x00, 0x00, 0x02, 0x00, 0x00, 0x00, 0x01, 0x00, 0x00, 0x00,
  0x10, 0x00, 0x00, 0x00, 0x15, 0x00, 0x00, 0x00, 0x73, 0x65, 0x71, 0x75,
  0x65, 0x6e, 0x74, 0x69, 0x61, 0x6c, 0x2f, 0x64, 0x65, 0x6e, 0x73, 0x65,
  0x2f, 0x52, 0x65, 0x6c, 0x75, 0x00, 0x00, 0x00, 0x1c, 0xd3, 0xff, 0xff,
  0x00, 0x00, 0x0a, 0x00, 0x10, 0x00, 0x04, 0x00, 0x08, 0x00, 0x0c, 0x00,
  0x0a, 0x00, 0x00, 0x00, 0x02, 0x00, 0x00, 0x00, 0x10, 0x00, 0x00, 0x00,
  0x04, 0x00, 0x00, 0x00, 0x01, 0x00, 0x00, 0x00, 0x0e, 0x00, 0x00, 0x00,
  0x02, 0x00, 0x00, 0x00, 0x0d, 0x00, 0x00, 0x00, 0x03, 0x00, 0x00, 0x00,
  0x7a, 0xfd, 0xff, 0xff, 0x00, 0x00, 0x00, 0x16, 0x01, 0x00, 0x00, 0x00,
  0x52, 0xd3, 0xff, 0xff, 0x10, 0x00, 0x00, 0x00, 0x0f, 0x00, 0x00, 0x00,
  0x14, 0x00, 0x00, 0x00, 0x30, 0x00, 0x00, 0x00, 0x02, 0x00, 0x00, 0x00,
  0x01, 0x00, 0x00, 0x00, 0x70, 0x00, 0x00, 0x00, 0x1a, 0x00, 0x00, 0x00,
  0x73, 0x65, 0x71, 0x75, 0x65, 0x6e, 0x74, 0x69, 0x61, 0x6c, 0x2f, 0x66,
  0x6c, 0x61, 0x74, 0x74, 0x65, 0x6e, 0x2f, 0x52, 0x65, 0x73, 0x68, 0x61,
  0x70, 0x65, 0x00, 0x00, 0x44, 0xd3, 0xff, 0xff, 0xe2, 0xfe, 0xff, 0xff,
  0x00, 0x00, 0x00, 0x05, 0x01, 0x00, 0x00, 0x00, 0x38, 0x00, 0x00, 0x00,
  0x2c, 0x00, 0x00, 0x00, 0x14, 0x00, 0x00, 0x00, 0x00, 0x00, 0x0e, 0x00,
  0x14, 0x00, 0x00, 0x00, 0x10, 0x00, 0x0c, 0x00, 0x08, 0x00, 0x04, 0x00,
  0x0e, 0x00, 0x00, 0x00, 0x03, 0x00, 0x00, 0x00, 0x01, 0x00, 0x00, 0x00,
  0x03, 0x00, 0x00, 0x00, 0x01, 0x00, 0x00, 0x00, 0x01, 0x00, 0x00, 0x00,
  0x0d, 0x00, 0x00, 0x00, 0x01, 0x00, 0x00, 0x00, 0x0c, 0x00, 0x00, 0x00,
  0xe2, 0xd3, 0xff, 0xff, 0x10, 0x00, 0x00, 0x00, 0x0e, 0x00, 0x00, 0x00,
  0x1c, 0x00, 0x00, 0x00, 0x40, 0x00, 0x00, 0x00, 0x04, 0x00, 0x00, 0x00,
  0x01, 0x00, 0x00, 0x00, 0x07, 0x00, 0x00, 0x00, 0x01, 0x00, 0x00, 0x00,
  0x10, 0x00, 0x00, 0x00, 0x22, 0x00, 0x00, 0x00, 0x73, 0x65, 0x71, 0x75,
  0x65, 0x6e, 0x74, 0x69, 0x61, 0x6c, 0x2f, 0x6d, 0x61, 0x78, 0x5f, 0x70,
  0x6f, 0x6f, 0x6c, 0x69, 0x6e, 0x67, 0x32, 0x64, 0x5f, 0x31, 0x2f, 0x4d,
  0x61, 0x78, 0x50, 0x6f, 0x6f, 0x6c, 0x00, 0x00, 0xe4, 0xd3, 0xff, 0xff,
  0xc2, 0xfe, 0xff, 0xff, 0x00, 0x00, 0x00, 0x01, 0x24, 0x00, 0x00, 0x00,
  0x18, 0x00, 0x00, 0x00, 0x04, 0x00, 0x00, 0x00, 0xb4, 0xfe, 0xff, 0xff,
  0x01, 0x00, 0x00, 0x00, 0x01, 0x00, 0x00, 0x00, 0x00, 0x00, 0x00, 0x01,
  0x01, 0x00, 0x00, 0x00, 0x0c, 0x00, 0x00, 0x00, 0x03, 0x00, 0x00, 0x00,
  0x0b, 0x00, 0x00, 0x00, 0x07, 0x00, 0x00, 0x00, 0x09, 0x00, 0x00, 0x00,
  0x72, 0xd4, 0xff, 0xff, 0x10, 0x00, 0x00, 0x00, 0x0d, 0x00, 0x00, 0x00,
  0x1c, 0x00, 0x00, 0x00, 0x2c, 0x00, 0x00, 0x00, 0x04, 0x00, 0x00, 0x00,
  0x01, 0x00, 0x00, 0x00, 0x15, 0x00, 0x00, 0x00, 0x01, 0x00, 0x00, 0x00,
  0x10, 0x00, 0x00, 0x00, 0x0c, 0x00, 0x00, 0x00, 0x74, 0x66, 0x6c, 0x2e,
  0x63, 0x6f, 0x6e, 0x76, 0x5f, 0x32, 0x64, 0x31, 0x00, 0x00, 0x00, 0x00,
  0xb8, 0xd4, 0xff, 0xff, 0x00, 0x00, 0x0e, 0x00, 0x1a, 0x00, 0x08, 0x00,
  0x0c, 0x00, 0x10, 0x00, 0x07, 0x00, 0x14, 0x00, 0x0e, 0x00, 0x00, 0x00,
  0x00, 0x00, 0x00, 0x05, 0x01, 0x00, 0x00, 0x00, 0x3c, 0x00, 0x00, 0x00,
  0x30, 0x00, 0x00, 0x00, 0x14, 0x00, 0x00, 0x00, 0x00, 0x00, 0x0e, 0x00,
  0x18, 0x00, 0x17, 0x00, 0x10, 0x00, 0x0c, 0x00, 0x08, 0x00, 0x04, 0x00,
  0x0e, 0x00, 0x00, 0x00, 0x03, 0x00, 0x00, 0x00, 0x03, 0x00, 0x00, 0x00,
  0x03, 0x00, 0x00, 0x00, 0x03, 0x00, 0x00, 0x00, 0x00, 0x00, 0x00, 0x01,
  0x01, 0x00, 0x00, 0x00, 0x0b, 0x00, 0x00, 0x00, 0x01, 0x00, 0x00, 0x00,
  0x0a, 0x00, 0x00, 0x00, 0x46, 0xff, 0xff, 0xff, 0x00, 0x00, 0x00, 0x11,
  0x01, 0x00, 0x00, 0x00, 0x1e, 0xd5, 0xff, 0xff, 0x10, 0x00, 0x00, 0x00,
  0x0c, 0x00, 0x00, 0x00, 0x1c, 0x00, 0x00, 0x00, 0x40, 0x00, 0x00, 0x00,
  0x04, 0x00, 0x00, 0x00, 0x01, 0x00, 0x00, 0x00, 0x15, 0x00, 0x00, 0x00,
  0x01, 0x00, 0x00, 0x00, 0x08, 0x00, 0x00, 0x00, 0x20, 0x00, 0x00, 0x00,
  0x73, 0x65, 0x71, 0x75, 0x65, 0x6e, 0x74, 0x69, 0x61, 0x6c, 0x2f, 0x6d,
  0x61, 0x78, 0x5f, 0x70, 0x6f, 0x6f, 0x6c, 0x69, 0x6e, 0x67, 0x32, 0x64,
  0x2f, 0x4d, 0x61, 0x78, 0x50, 0x6f, 0x6f, 0x6c, 0x00, 0x00, 0x00, 0x00,
  0x78, 0xd5, 0xff, 0xff, 0x00, 0x00, 0x0e, 0x00, 0x14, 0x00, 0x00, 0x00,
  0x08, 0x00, 0x0c, 0x00, 0x07, 0x00, 0x10, 0x00, 0x0e, 0x00, 0x00, 0x00,
  0x00, 0x00, 0x00, 0x01, 0x30, 0x00, 0x00, 0x00, 0x24, 0x00, 0x00, 0x00,
  0x10, 0x00, 0x00, 0x00, 0x0c, 0x00, 0x10, 0x00, 0x00, 0x00, 0x04, 0x00,
  0x08, 0x00, 0x0f, 0x00, 0x0c, 0x00, 0x00, 0x00, 0x01, 0x00, 0x00, 0x00,
  0x01, 0x00, 0x00, 0x00, 0x00, 0x00, 0x00, 0x01, 0x01, 0x00, 0x00, 0x00,
  0x0a, 0x00, 0x00, 0x00, 0x03, 0x00, 0x00, 0x00, 0x00, 0x00, 0x00, 0x00,
  0x06, 0x00, 0x00, 0x00, 0x08, 0x00, 0x00, 0x00, 0x00, 0x00, 0x0a, 0x00,
  0x0c, 0x00, 0x07, 0x00, 0x00, 0x00, 0x08, 0x00, 0x0a, 0x00, 0x00, 0x00,
  0x00, 0x00, 0x00, 0x03, 0x01, 0x00, 0x00, 0x00, 0xe2, 0xd5, 0xff, 0xff,
  0x10, 0x00, 0x00, 0x00, 0x0b, 0x00, 0x00, 0x00, 0x1c, 0x00, 0x00, 0x00,
  0x28, 0x00, 0x00, 0x00, 0x04, 0x00, 0x00, 0x00, 0x01, 0x00, 0x00, 0x00,
  0x40, 0x00, 0x00, 0x00, 0x03, 0x00, 0x00, 0x00, 0x08, 0x00, 0x00, 0x00,
  0x0b, 0x00, 0x00, 0x00, 0x74, 0x66, 0x6c, 0x2e, 0x63, 0x6f, 0x6e, 0x76,
  0x5f, 0x32, 0x64, 0x00, 0xcc, 0xd5, 0xff, 0xff, 0xc2, 0xd6, 0xff, 0xff,
  0x04, 0x00, 0x00, 0x00, 0x40, 0x00, 0x00, 0x00, 0x0b, 0xe0, 0x9e, 0xbf,
  0xe9, 0x68, 0xa4, 0xbf, 0x8e, 0x5b, 0xa4, 0xbe, 0x22, 0xb1, 0xa4, 0x40,
  0x9e, 0xb7, 0xdd, 0xbb, 0xd2, 0x21, 0xa2, 0xbf, 0x98, 0xe9, 0xe5, 0xbe,
  0x87, 0xa3, 0x88, 0xbf, 0x56, 0x88, 0x46, 0x3e, 0xd8, 0xeb, 0xb6, 0xbc,
  0x22, 0x33, 0xfc, 0xbe, 0xa4, 0x6c, 0x78, 0xbf, 0x1b, 0x4a, 0xbe, 0xbf,
  0x9e, 0x62, 0x83, 0x3e, 0x7c, 0xba, 0x8b, 0xbf, 0xed, 0xbe, 0x48, 0xbf,
  0x6a, 0xd6, 0xff, 0xff, 0x10, 0x00, 0x00, 0x00, 0x0a, 0x00, 0x00, 0x00,
  0x10, 0x00, 0x00, 0x00, 0x20, 0x00, 0x00, 0x00, 0x01, 0x00, 0x00, 0x00,
  0x10, 0x00, 0x00, 0x00, 0x0d, 0x00, 0x00, 0x00, 0x73, 0x74, 0x64, 0x2e,
  0x63, 0x6f, 0x6e, 0x73, 0x74, 0x61, 0x6e, 0x74, 0x31, 0x00, 0x00, 0x00,
  0x4c, 0xd6, 0xff, 0xff, 0x42, 0xd7, 0xff, 0xff, 0x04, 0x00, 0x00, 0x00,
  0x20, 0x00, 0x00, 0x00, 0xfc, 0x8a, 0x1a, 0xc0, 0x4e, 0x64, 0xac, 0xbf,
  0xb6, 0xf6, 0x03, 0xc0, 0x0e, 0xde, 0x6f, 0xbb, 0x2f, 0x73, 0xc6, 0xbf,
  0xdc, 0xb4, 0xf0, 0xbf, 0x6a, 0xbc, 0xb8, 0xbf, 0x0a, 0xc7, 0x09, 0xbd,
  0xca, 0xd6, 0xff, 0xff, 0x10, 0x00, 0x00, 0x00, 0x09, 0x00, 0x00, 0x00,
  0x10, 0x00, 0x00, 0x00, 0x20, 0x00, 0x00, 0x00, 0x01, 0x00, 0x00, 0x00,
  0x08, 0x00, 0x00, 0x00, 0x0c, 0x00, 0x00, 0x00, 0x73, 0x74, 0x64, 0x2e,
  0x63, 0x6f, 0x6e, 0x73, 0x74, 0x61, 0x6e, 0x74, 0x00, 0x00, 0x00, 0x00,
  0xac, 0xd6, 0xff, 0xff, 0xa2, 0xd7, 0xff, 0xff, 0x04, 0x00, 0x00, 0x00,
  0x00, 0x08, 0x00, 0x00, 0xf7, 0x2c, 0xa9, 0xbe, 0x05, 0xc4, 0x09, 0x3d,
  0x4c, 0x8b, 0x06, 0xbf, 0xc1, 0xdd, 0x08, 0xbd, 0xf6, 0x80, 0x1a, 0xbd,
  0xb8, 0xdf, 0xf0, 0xbe, 0xb5, 0x5e, 0x97, 0xbd, 0x5a, 0x8c, 0xb1, 0xbe,
  0xcd, 0xec, 0x50, 0xbe, 0x69, 0x74, 0x90, 0xbd, 0x2f, 0x95, 0xcc, 0x3e,
  0x1e, 0xfa, 0x2e, 0xbd, 0x0b, 0x80, 0xe0, 0x3e, 0xef, 0xad, 0x02, 0xbe,
  0x88, 0x6c, 0x51, 0x3d, 0x34, 0x52, 0x4f, 0xbe, 0xa5, 0x2a, 0x00, 0xbe,
  0x34, 0x57, 0x0d, 0xbe, 0x0e, 0x6f, 0x8c, 0xbd, 0xec, 0xad, 0x00, 0x3e,
  0xf2, 0x98, 0xaa, 0xbe, 0x30, 0x99, 0xa7, 0x3e, 0x2f, 0x17, 0xfa, 0xbd,
  0x7a, 0xc8, 0x50, 0x3e, 0xf9, 0xe3, 0x26, 0xbd, 0xba, 0x0b, 0xbf, 0xbd,
  0x68, 0x30, 0x30, 0x3e, 0x79, 0xdf, 0x15, 0xbe, 0x08, 0xa4, 0x61, 0xbe,
  0x79, 0x2d, 0xa9, 0xbd, 0xed, 0xc4, 0x29, 0xbe, 0x01, 0x7d, 0xcc, 0x3d,
  0xf1, 0x3e, 0x3a, 0x3d, 0xd5, 0x52, 0x97, 0x3d, 0x33, 0x20, 0x32, 0x3f,
  0x16, 0x46, 0x83, 0xbe, 0xe8, 0xc2, 0x0d, 0x3e, 0x01, 0x3c, 0xd4, 0x3d,
  0x36, 0x78, 0x73, 0xbd, 0xf8, 0x19, 0x87, 0xbd, 0xd4, 0x7a, 0x3d, 0x3d,
  0xf4, 0xaf, 0xa6, 0x3c, 0xdf, 0x21, 0x88, 0xbe, 0xfb, 0x5e, 0x0c, 0xbf,
  0xd0, 0x4b, 0x79, 0x3d, 0x47, 0x1a, 0x19, 0x3e, 0xff, 0x5d, 0x59, 0x3e,
  0xe0, 0xdc, 0x66, 0xbd, 0x91, 0x70, 0x96, 0xbd, 0x5e, 0xd6, 0xa8, 0xbd,
  0x31, 0x3d, 0x1b, 0xbf, 0x28, 0x3e, 0xcc, 0xbe, 0x2c, 0x72, 0x22, 0x3e,
  0x2d, 0x06, 0x81, 0xbe, 0x86, 0x7a, 0xb4, 0x3d, 0x36, 0x67, 0xe5, 0x3b,
  0x7e, 0x88, 0x3d, 0xbe, 0x63, 0xf9, 0x44, 0xbe, 0xcc, 0xee, 0xd1, 0xbd,
  0x05, 0x18, 0x96, 0xbc, 0xd6, 0x53, 0x86, 0x3e, 0x40, 0x82, 0x7d, 0xbe,
  0xf5, 0x52, 0xef, 0xbd, 0x90, 0x92, 0x11, 0xbd, 0x06, 0x96, 0x36, 0xbb,
  0x71, 0xab, 0xe7, 0x3c, 0xdb, 0xd3, 0xc2, 0x3e, 0xcb, 0x80, 0x06, 0x3d,
  0xab, 0xc7, 0xc6, 0x3e, 0xba, 0xa4, 0x2d, 0xbd, 0x0d, 0x52, 0xe2, 0xbb,
  0xea, 0x03, 0x36, 0x3c, 0xd8, 0x4f, 0x3d, 0x3e, 0x25, 0x9d, 0x39, 0xbd,
  0xc9, 0x24, 0x95, 0xbe, 0x92, 0x59, 0x0a, 0xbd, 0x82, 0x76, 0xa5, 0x3e,
  0x9c, 0x5c, 0x26, 0xbe, 0xf3, 0xb9, 0x67, 0xbb, 0xc2, 0xe3, 0xa1, 0x3c,
  0x3c, 0xca, 0xba, 0xbd, 0xed, 0xa7, 0xc3, 0xbd, 0x54, 0x9a, 0x8a, 0x3c,
  0x02, 0xa8, 0x72, 0xbc, 0x54, 0x24, 0xe2, 0xba, 0x4e, 0xd4, 0x44, 0xbc,
  0xbb, 0xf3, 0x80, 0x3c, 0xd4, 0x69, 0x14, 0xbd, 0x12, 0xa6, 0x21, 0xbe,
  0x7f, 0x74, 0x54, 0xbe, 0xa2, 0xa2, 0xcc, 0xbd, 0x41, 0x97, 0x72, 0xbc,
  0xc6, 0xcf, 0x92, 0x3c, 0x20, 0xed, 0x46, 0x3d, 0xa6, 0x89, 0x82, 0xbc,
  0x5f, 0x43, 0x09, 0x3d, 0x9b, 0x00, 0x81, 0xbe, 0x74, 0x3d, 0x04, 0xbf,
  0xad, 0x6b, 0x8c, 0x3e, 0x34, 0x60, 0x7f, 0xbd, 0xdc, 0x31, 0xbb, 0xbe,
  0x80, 0xe1, 0xc9, 0xbd, 0x58, 0xd4, 0x7b, 0xbe, 0x34, 0x7d, 0x73, 0xbd,
  0xcc, 0xef, 0x63, 0xbe, 0xe4, 0x59, 0x99, 0xbe, 0x2c, 0x7d, 0x65, 0xbd,
  0x7f, 0xf2, 0x05, 0xbd, 0xc7, 0x36, 0xe5, 0xbd, 0xa0, 0xdd, 0xd9, 0xbd,
  0xfd, 0x9e, 0x81, 0xbd, 0x31, 0x8d, 0x4f, 0xbd, 0x07, 0xe4, 0x33, 0xbe,
  0xb5, 0xac, 0xf2, 0xbd, 0x81, 0xe3, 0xa6, 0xbe, 0x33, 0xa6, 0x7b, 0xbe,
  0xdf, 0x90, 0xd4, 0x37, 0x1a, 0x34, 0x39, 0xbc, 0x1d, 0xfc, 0x4c, 0xbe,
  0xe3, 0x08, 0x88, 0xbd, 0x91, 0x85, 0xd2, 0x3d, 0xbf, 0x90, 0x9e, 0xbe,
  0xe3, 0xd0, 0xbe, 0xbe, 0xa5, 0xd2, 0xa2, 0x3c, 0x27, 0x53, 0xcb, 0xbd,
  0xa5, 0x3a, 0xe0, 0xbe, 0xdf, 0x92, 0x24, 0xbd, 0x1c, 0x36, 0xb0, 0xbd,
  0xf3, 0xa2, 0x03, 0xbe, 0xd1, 0x34, 0xd2, 0xbe, 0xc1, 0xa7, 0x94, 0x3e,
  0x0f, 0x17, 0xca, 0x3e, 0x06, 0xb1, 0xe6, 0x3e, 0x5b, 0xbc, 0x8d, 0x3d,
  0x58, 0xff, 0x47, 0xbe, 0x90, 0xb6, 0x1b, 0xbe, 0x94, 0x43, 0xe1, 0xbd,
  0xc4, 0xb4, 0xf7, 0xbe, 0xb6, 0xbc, 0x2c, 0x3e, 0x09, 0x43, 0xab, 0xbd,
  0xe6, 0x33, 0xab, 0x3d, 0xc6, 0x7b, 0x23, 0x3e, 0x89, 0x60, 0x86, 0xbe,
  0x79, 0xbb, 0x53, 0xbe, 0xcf, 0xd9, 0x53, 0xbd, 0x8e, 0x86, 0xaf, 0xbe,
  0x35, 0x3d, 0x16, 0x3e, 0x28, 0x71, 0x05, 0xbd, 0xf3, 0xd4, 0xb3, 0x3e,
  0x19, 0xac, 0xf5, 0x3d, 0x0e, 0xcc, 0x94, 0xbe, 0x4b, 0xa1, 0xbf, 0x3d,
  0x2b, 0x97, 0x2e, 0xbd, 0x0d, 0x35, 0x84, 0xbe, 0xed, 0xe0, 0x78, 0x3e,
  0x5c, 0x01, 0x8b, 0xbd, 0x39, 0xe8, 0x8e, 0x3e, 0x93, 0x1a, 0xfa, 0x3d,
  0xe5, 0xb4, 0x82, 0xbe, 0x1b, 0x90, 0x02, 0xbe, 0xa9, 0x94, 0xef, 0xbe,
  0xd2, 0x46, 0xe3, 0xbd, 0x23, 0xb8, 0xab, 0xbe, 0x49, 0x9d, 0x3b, 0xbd,
  0x9c, 0xdf, 0x20, 0x3e, 0x1e, 0xc3, 0xdf, 0xbe, 0x64, 0xb1, 0xc9, 0xbd,
  0xd3, 0x1a, 0xeb, 0xbe, 0x6d, 0xbc, 0xfb, 0xbe, 0x39, 0x9c, 0x86, 0xbe,
  0x1d, 0x8f, 0xc4, 0xbc, 0xaa, 0xff, 0x85, 0x3d, 0x45, 0x5a, 0xb8, 0x3e,
  0xa6, 0xa8, 0x84, 0x3d, 0x7b, 0x9a, 0x0d, 0xbd, 0x3f, 0x3a, 0xb8, 0xbe,
  0x63, 0x9c, 0xbb, 0xbd, 0x74, 0x77, 0x51, 0xbe, 0x57, 0xac, 0xb4, 0x3e,
  0x48, 0xab, 0xfe, 0xbc, 0x5d, 0x24, 0x3c, 0xbf, 0xf8, 0x2b, 0x0f, 0xbe,
  0xe1, 0xab, 0x54, 0xbe, 0x32, 0x30, 0x64, 0x3e, 0xa7, 0x7a, 0xda, 0xbd,
  0xde, 0x6c, 0x3a, 0xbe, 0xe4, 0x01, 0x70, 0xbe, 0x87, 0x61, 0xa9, 0xbd,
  0xb7, 0xb9, 0x0e, 0xbd, 0x15, 0x3a, 0x89, 0x3e, 0xaa, 0xe5, 0xe0, 0xbd,
  0x37, 0x59, 0x89, 0x3e, 0xbc, 0x72, 0x26, 0xbe, 0x62, 0x05, 0xc4, 0xba,
  0x1c, 0x24, 0x8f, 0x3e, 0x32, 0x02, 0x9d, 0x3d, 0xdd, 0x05, 0x30, 0x3f,
  0xfc, 0xb5, 0xae, 0x3e, 0x4b, 0x62, 0x85, 0xbc, 0x4c, 0xbb, 0xf0, 0x3d,
  0x0f, 0xb2, 0x16, 0xbf, 0xd4, 0xcd, 0xe0, 0x3c, 0xaf, 0x27, 0xdb, 0xbd,
  0x73, 0x8d, 0x10, 0xbc, 0x83, 0x39, 0x25, 0xbe, 0x06, 0x6c, 0x72, 0xbe,
  0x48, 0xa7, 0x02, 0xbd, 0xb6, 0x12, 0xb5, 0xbe, 0xa2, 0xde, 0x13, 0xbf,
  0x14, 0x9c, 0xd2, 0xbc, 0x92, 0x5b, 0x4f, 0xbd, 0x61, 0x6f, 0x41, 0xbc,
  0x5d, 0x3c, 0x73, 0xbe, 0x63, 0x4e, 0x65, 0xbe, 0xaa, 0xf5, 0x85, 0xbc,
  0xcc, 0x54, 0xe7, 0xbe, 0x73, 0xc7, 0xf7, 0xbe, 0xcb, 0x97, 0x25, 0xbd,
  0x0c, 0xef, 0x28, 0xbe, 0x26, 0x3e, 0x2c, 0xbc, 0xe3, 0x57, 0xe0, 0xbd,
  0x1a, 0x6d, 0x19, 0xbe, 0x86, 0xe7, 0x9d, 0xbc, 0xab, 0xa2, 0xe6, 0xbe,
  0xef, 0x5b, 0x56, 0xbd, 0xf2, 0x91, 0x38, 0x3d, 0x22, 0x73, 0xf7, 0xbd,
  0x7f, 0x6a, 0xce, 0xbe, 0x97, 0x46, 0x03, 0xbe, 0x77, 0x0f, 0x79, 0x3d,
  0x90, 0x71, 0xb2, 0xbe, 0x28, 0xfd, 0x2b, 0xbd, 0xcd, 0x2c, 0x13, 0x3e,
  0xf8, 0x4f, 0x0d, 0x3e, 0x56, 0xaa, 0x8d, 0x3e, 0x23, 0xba, 0xed, 0xbe,
  0x37, 0xbd, 0x36, 0x3e, 0x50, 0xbc, 0x97, 0x3c, 0xe2, 0xbf, 0x03, 0xbe,
  0xf0, 0x27, 0x8e, 0xbd, 0x24, 0xdc, 0x0e, 0x3e, 0x46, 0x01, 0xb9, 0xbd,
  0xf5, 0xf4, 0xcc, 0x3d, 0x02, 0xa8, 0x34, 0xbf, 0xb2, 0xc4, 0x60, 0x3e,
  0x6a, 0x0b, 0x78, 0x3d, 0x2e, 0x9c, 0xdd, 0x3e, 0xf4, 0xa1, 0x01, 0xbe,
  0x4b, 0x81, 0x9c, 0xbd, 0x2f, 0x28, 0x58, 0xbe, 0x94, 0x5d, 0xe0, 0xbe,
  0xa4, 0x63, 0xcd, 0xbe, 0x40, 0x5b, 0xe6, 0x3e, 0xe5, 0xf8, 0xa6, 0xbe,
  0x33, 0xf1, 0x49, 0xbd, 0x69, 0xaf, 0xae, 0xbd, 0x99, 0xd7, 0x97, 0x3c,
  0x04, 0x0c, 0xec, 0x3d, 0xd3, 0x72, 0x7c, 0xbe, 0xe1, 0x60, 0x43, 0xbd,
  0x37, 0x93, 0xb5, 0xbd, 0x27, 0x27, 0x42, 0xbe, 0x61, 0xa5, 0x98, 0xbd,
  0xd9, 0x77, 0x04, 0xbd, 0xcd, 0x78, 0xa4, 0x3d, 0x33, 0x62, 0xe9, 0x3d,
  0x05, 0xab, 0x17, 0xbe, 0xc2, 0x17, 0x22, 0xbe, 0x8b, 0x4b, 0xe3, 0x3d,
  0xe9, 0x64, 0xd7, 0xbd, 0x35, 0x76, 0x63, 0xbe, 0x99, 0x71, 0x79, 0xbc,
  0x30, 0xa2, 0x8d, 0xbe, 0x08, 0xab, 0x47, 0xbe, 0x61, 0xec, 0xb9, 0x3d,
  0x1e, 0xab, 0x97, 0xbe, 0xc7, 0x35, 0x82, 0xbe, 0x0e, 0x86, 0x80, 0x3b,
  0x03, 0x0c, 0xc7, 0xbe, 0x32, 0x8a, 0xbf, 0xbe, 0x96, 0xe4, 0xb4, 0xbd,
  0xa7, 0x78, 0x95, 0x3e, 0xf2, 0x7a, 0x17, 0xbe, 0x5d, 0xdb, 0x4b, 0xbe,
  0x81, 0x80, 0xc1, 0x3d, 0x6e, 0x90, 0x97, 0x3d, 0x99, 0x83, 0xd8, 0xbe,
  0xed, 0x2d, 0x89, 0xbe, 0xb1, 0x1b, 0x56, 0xbe, 0xc9, 0xfe, 0x50, 0xbe,
  0x56, 0x5e, 0x7c, 0x3e, 0x1b, 0x8b, 0x28, 0xbe, 0x53, 0x70, 0x2e, 0x3e,
  0xf6, 0xc6, 0x3a, 0xbe, 0x8f, 0x06, 0xab, 0xbd, 0xa8, 0x8e, 0xae, 0x3e,
  0x4f, 0x1a, 0xeb, 0xbd, 0x4c, 0xd5, 0x98, 0xbd, 0xd7, 0x72, 0xb8, 0x3d,
  0x96, 0xed, 0xde, 0xbc, 0xe6, 0x3a, 0x9b, 0x3d, 0xd2, 0xd3, 0x50, 0x3e,
  0x61, 0x96, 0xbe, 0xbd, 0x67, 0x3d, 0xdf, 0xbd, 0x65, 0x70, 0x0a, 0xbe,
  0x6d, 0xac, 0x8d, 0x3d, 0xf5, 0x7f, 0x14, 0xbe, 0x8f, 0xf7, 0x9a, 0x3e,
  0xe9, 0x3b, 0xd7, 0x3c, 0x4c, 0xa0, 0x17, 0x3d, 0xc3, 0xad, 0xfb, 0xbd,
  0xdd, 0xdf, 0xf1, 0xbd, 0xda, 0x46, 0x00, 0xbd, 0x5e, 0x46, 0xde, 0x3d,
  0xb4, 0xfb, 0x05, 0x3e, 0x4f, 0x39, 0xb4, 0xbc, 0x03, 0x71, 0x16, 0x3e,
  0x53, 0x80, 0x70, 0xbd, 0x85, 0x50, 0xec, 0xbd, 0xa8, 0xc6, 0xeb, 0xbd,
  0x63, 0xad, 0x13, 0xbe, 0xd9, 0x86, 0x5e, 0xbd, 0x19, 0x2f, 0x82, 0xbe,
  0xb0, 0x07, 0xc8, 0xbe, 0x04, 0x9e, 0x25, 0x3e, 0x2b, 0xdd, 0x7e, 0xbd,
  0xdb, 0x05, 0x11, 0xbe, 0x37, 0x43, 0x99, 0x3a, 0x4c, 0x81, 0x3d, 0x3e,
  0x1c, 0x08, 0x8e, 0xbc, 0x98, 0x99, 0x1a, 0x3e, 0xa1, 0xc9, 0x96, 0xbe,
  0x9a, 0x3d, 0x3a, 0x3e, 0x60, 0xa6, 0x2a, 0x3c, 0x99, 0xd8, 0x6d, 0xbe,
  0x3c, 0x98, 0x02, 0xbe, 0xac, 0xd2, 0x46, 0x3e, 0xc7, 0x96, 0xe9, 0x3c,
  0x92, 0xa3, 0x07, 0x3e, 0x13, 0xe6, 0x87, 0xbe, 0xde, 0xb6, 0x0d, 0x3e,
  0xcf, 0x71, 0x9b, 0x3d, 0xed, 0x8f, 0x72, 0x3e, 0x2b, 0x88, 0xb9, 0xbd,
  0x39, 0x6a, 0x47, 0x3c, 0x08, 0x8f, 0x95, 0xbb, 0xea, 0x9c, 0x8f, 0x3c,
  0x2d, 0x36, 0x54, 0xbe, 0xfd, 0x2e, 0xa2, 0x3d, 0xc0, 0xda, 0x6f, 0xbd,
  0xa8, 0x0d, 0xe3, 0x3d, 0x92, 0xc5, 0x35, 0x3d, 0xd4, 0x6b, 0x58, 0xbe,
  0x54, 0x24, 0xa1, 0xbe, 0xe5, 0x2b, 0x0b, 0x3e, 0x06, 0xc2, 0x97, 0x3c,
  0x63, 0x19, 0x42, 0x3d, 0x3f, 0x3e, 0xa3, 0x3e, 0x82, 0x3e, 0x60, 0x3e,
  0xe2, 0x5e, 0x39, 0x3c, 0x5b, 0x70, 0x0b, 0xbe, 0x60, 0x86, 0x9e, 0xbe,
  0xbc, 0xb8, 0xd4, 0x3d, 0xaa, 0xb7, 0xae, 0xbc, 0x39, 0x47, 0x2d, 0xbe,
  0xb4, 0xb8, 0xb4, 0x3e, 0x63, 0xcd, 0x07, 0xbe, 0xd5, 0x1d, 0xc1, 0xbd,
  0xb6, 0x11, 0x92, 0xbd, 0x48, 0x84, 0xbf, 0xbd, 0x17, 0xdc, 0x82, 0x3e,
  0x2f, 0xe4, 0xcb, 0xbc, 0xb4, 0x54, 0x46, 0xbe, 0x66, 0x5b, 0x3d, 0xbc,
  0x11, 0xb6, 0xfb, 0xbd, 0x00, 0x19, 0xb2, 0xbd, 0x67, 0x5e, 0x09, 0x3d,
  0x33, 0x47, 0x64, 0x3d, 0x69, 0x4c, 0xde, 0xbe, 0xaf, 0xa2, 0x9c, 0xbe,
  0xa6, 0x5d, 0x50, 0xbd, 0x1d, 0xab, 0x38, 0xbe, 0xef, 0x70, 0xc4, 0xbd,
  0x2a, 0x7d, 0xf8, 0xbc, 0xd2, 0x65, 0x3d, 0xbe, 0x97, 0x42, 0xc2, 0xbd,
  0x52, 0x73, 0x81, 0xbe, 0x79, 0x22, 0xe8, 0xbd, 0x32, 0x21, 0x90, 0xbd,
  0x99, 0x6c, 0x8b, 0xbe, 0x7c, 0xa6, 0xe1, 0xbd, 0x07, 0x70, 0x06, 0xbe,
  0x36, 0xb0, 0x1d, 0xbe, 0x56, 0xfc, 0xa6, 0xbd, 0xea, 0x44, 0xbf, 0x3d,
  0x35, 0x02, 0xdd, 0xbd, 0x1c, 0x87, 0x3d, 0xbe, 0x9a, 0x9a, 0x21, 0xbe,
  0x03, 0x5a, 0x29, 0xbe, 0xd1, 0x01, 0x08, 0xbe, 0xe6, 0x9f, 0x5f, 0xbd,
  0xb5, 0x1e, 0x1a, 0x3d, 0x5f, 0x24, 0x16, 0x3e, 0x92, 0x6f, 0xc6, 0xbd,
  0x54, 0xb1, 0x33, 0x3d, 0x92, 0xc8, 0xe2, 0x3e, 0x5f, 0x77, 0xa0, 0xbd,
  0x47, 0xf2, 0x02, 0xbe, 0x67, 0x33, 0xe7, 0x3e, 0x6f, 0xc3, 0xc2, 0x3c,
  0x7d, 0x08, 0x52, 0x3e, 0x42, 0x4c, 0xb0, 0xbc, 0x1f, 0xe9, 0xd5, 0x3d,
  0x3e, 0x55, 0x07, 0x3e, 0x24, 0x13, 0xa0, 0x3e, 0x60, 0xa9, 0x18, 0xbc,
  0x94, 0x75, 0xb1, 0xbd, 0x76, 0x76, 0xf1, 0xbd, 0x29, 0x0d, 0x3a, 0xbe,
  0x49, 0xd3, 0xf0, 0xbc, 0x25, 0x2d, 0x06, 0xbe, 0x85, 0x82, 0x39, 0xbe,
  0x6d, 0xd4, 0x49, 0x3e, 0x6b, 0x4d, 0xf2, 0xbd, 0x32, 0x52, 0xc8, 0xbb,
  0x4f, 0xcc, 0xa3, 0xbd, 0x63, 0xec, 0x87, 0x3d, 0x0f, 0xfd, 0xe1, 0x3d,
  0xd8, 0x80, 0x44, 0x3e, 0x7a, 0xa8, 0x58, 0x3d, 0x29, 0xd3, 0x3e, 0x3e,
  0x67, 0xf1, 0x6d, 0x3e, 0x11, 0xd1, 0x2a, 0xbd, 0xe4, 0xbd, 0xf2, 0xbd,
  0x1e, 0xe5, 0x0f, 0xbc, 0x7a, 0x2d, 0x92, 0x3d, 0x93, 0x01, 0x08, 0xbe,
  0xfb, 0x25, 0x2f, 0x3c, 0x84, 0xa5, 0xc4, 0x3c, 0xe4, 0x2a, 0xdb, 0xbc,
  0x68, 0x6e, 0xa0, 0x3c, 0xf2, 0xb4, 0x80, 0xbd, 0xd0, 0x7b, 0xe6, 0xbc,
  0xa2, 0xe9, 0xb8, 0x3d, 0x12, 0x9e, 0x38, 0x3d, 0xe9, 0x93, 0x82, 0x3b,
  0xc5, 0xce, 0xaa, 0xbd, 0x6d, 0xeb, 0x44, 0x3e, 0xd3, 0x3b, 0x68, 0x3b,
  0x9b, 0xd3, 0xe5, 0x3b, 0x97, 0xa7, 0x04, 0xbf, 0xdd, 0xd9, 0x34, 0xbd,
  0x3f, 0xff, 0x21, 0x3f, 0x31, 0x8e, 0x1e, 0xbe, 0x8a, 0xb1, 0x77, 0xbd,
  0x17, 0x43, 0x9c, 0xbd, 0xaa, 0xa8, 0xd7, 0xbd, 0x15, 0x92, 0x04, 0xbd,
  0xf9, 0x1c, 0x02, 0x3d, 0xd4, 0x20, 0x9b, 0xbd, 0x58, 0x2a, 0x33, 0x3e,
  0x1f, 0x22, 0xab, 0x3d, 0x2f, 0x7d, 0x60, 0x3c, 0xdd, 0xda, 0x24, 0xbe,
  0x10, 0xe9, 0x3b, 0xbf, 0xd1, 0x8d, 0x60, 0xbd, 0x8c, 0x8f, 0x87, 0xbd,
  0x1e, 0xbc, 0xa6, 0xbd, 0x38, 0xd9, 0xba, 0xbd, 0x49, 0x92, 0xa6, 0xbe,
  0x95, 0xbf, 0xbd, 0x3c, 0x00, 0x56, 0x7b, 0xbe, 0x77, 0xed, 0x88, 0xbe,
  0x92, 0x2f, 0xb6, 0xb8, 0xdf, 0xbd, 0x0c, 0x3e, 0xbc, 0xc1, 0xb2, 0x3d,
  0xf3, 0xe9, 0x9c, 0xbd, 0x84, 0x95, 0x7f, 0xbe, 0x15, 0xa6, 0x21, 0xbd,
  0xfa, 0x3a, 0x4b, 0xbf, 0x0e, 0xec, 0xb2, 0xbd, 0xc1, 0xe6, 0xb7, 0x3a,
  0xc9, 0x5e, 0xf3, 0xbe, 0x4c, 0x05, 0x63, 0x3c, 0x73, 0x63, 0x14, 0xbf,
  0x8f, 0xfd, 0xe4, 0xbe, 0xa1, 0xec, 0x73, 0xbe, 0xb9, 0xe7, 0xfe, 0xbe,
  0x73, 0x4c, 0xab, 0xbe, 0xa3, 0x9b, 0x20, 0xbe, 0x49, 0x7a, 0x66, 0x3e,
  0x3f, 0x4d, 0x31, 0x3d, 0x9a, 0x0a, 0x29, 0x3f, 0x9c, 0x73, 0x6b, 0xbe,
  0x81, 0xe1, 0x6c, 0xbd, 0x88, 0x4b, 0xea, 0xbe, 0xf4, 0x55, 0x79, 0xbe,
  0xce, 0xc0, 0x93, 0xbe, 0x35, 0xe5, 0xfd, 0x3d, 0x43, 0xa4, 0x85, 0x3d,
  0xa7, 0xc2, 0x52, 0x3e, 0x32, 0x06, 0xe8, 0x3d, 0x74, 0x9f, 0x37, 0xbd,
  0x7b, 0x4a, 0x58, 0x3e, 0xd5, 0xe6, 0xa0, 0x3c, 0x15, 0xf0, 0x7a, 0xbe,
  0x47, 0x0a, 0xd6, 0x3d, 0x2c, 0xbc, 0x27, 0x3d, 0x9c, 0x1f, 0x8a, 0xbe,
  0xea, 0xea, 0x53, 0x3e, 0xd9, 0x87, 0x95, 0xbe, 0x6b, 0x8e, 0x52, 0x3d,
  0x0a, 0xdf, 0xff, 0xff, 0x10, 0x00, 0x00, 0x00, 0x08, 0x00, 0x00, 0x00,
  0x1c, 0x00, 0x00, 0x00, 0x38, 0x00, 0x00, 0x00, 0x04, 0x00, 0x00, 0x00,
  0x10, 0x00, 0x00, 0x00, 0x04, 0x00, 0x00, 0x00, 0x01, 0x00, 0x00, 0x00,
  0x08, 0x00, 0x00, 0x00, 0x1a, 0x00, 0x00, 0x00, 0x73, 0x65, 0x71, 0x75,
  0x65, 0x6e, 0x74, 0x69, 0x61, 0x6c, 0x2f, 0x63, 0x6f, 0x6e, 0x76, 0x32,
  0x64, 0x5f, 0x31, 0x2f, 0x43, 0x6f, 0x6e, 0x76, 0x32, 0x44, 0x00, 0x00,
  0x04, 0xdf, 0xff, 0xff, 0xfa, 0xdf, 0xff, 0xff, 0x04, 0x00, 0x00, 0x00,
  0x80, 0x01, 0x00, 0x00, 0x06, 0x9b, 0x6b, 0xbc, 0x75, 0xb1, 0x64, 0x3e,
  0x3d, 0x7e, 0x81, 0xbe, 0x5e, 0x6e, 0x22, 0xbd, 0x80, 0x86, 0x62, 0x3d,
  0xb8, 0x7c, 0xdd, 0xbd, 0x18, 0x9c, 0xec, 0x3d, 0x2d, 0x73, 0x55, 0xbe,
  0x91, 0x3f, 0x8f, 0x3d, 0x08, 0x83, 0x77, 0x3d, 0xd5, 0x9b, 0x1a, 0xbe,
  0xeb, 0xfe, 0xc2, 0x3d, 0xc9, 0x81, 0x19, 0xbd, 0xdc, 0x64, 0xec, 0x3d,
  0x9a, 0x38, 0x25, 0xbe, 0x58, 0x4f, 0x26, 0xbd, 0x72, 0x66, 0x16, 0x3e,
  0xba, 0x88, 0xeb, 0xbd, 0x68, 0x3c, 0x0d, 0xbc, 0xe6, 0x57, 0x51, 0x3d,
  0xc8, 0x30, 0x5f, 0xbd, 0x31, 0x7b, 0x7a, 0x3d, 0x24, 0xd2, 0x63, 0x3a,
  0x64, 0x36, 0x22, 0xbd, 0xa3, 0xba, 0x29, 0x3d, 0xd4, 0x96, 0xba, 0xbc,
  0xf5, 0xe6, 0x38, 0xbb, 0xdc, 0x82, 0xe8, 0x3e, 0x01, 0xe6, 0x55, 0x3e,
  0x42, 0x27, 0x08, 0xbd, 0x5f, 0x8b, 0x7a, 0xbd, 0x16, 0xbf, 0x0b, 0x3c,
  0xa1, 0x93, 0x95, 0x3e, 0xa3, 0x81, 0xd1, 0xbe, 0x52, 0x72, 0x4c, 0xbe,
  0x3b, 0x66, 0x24, 0xbe, 0x2e, 0xa6, 0xc8, 0x3e, 0x61, 0x06, 0x44, 0xbe,
  0x60, 0x1a, 0x1c, 0xbb, 0x79, 0xf4, 0x45, 0x3e, 0x2e, 0x0c, 0x8a, 0x3e,
  0x1d, 0xd0, 0x81, 0xbd, 0x75, 0xee, 0x86, 0x3d, 0xfe, 0x6f, 0x77, 0xbd,
  0xc3, 0x24, 0x18, 0x3c, 0x43, 0x76, 0x50, 0xbe, 0xb4, 0xb3, 0x22, 0x3e,
  0x4b, 0x0f, 0x2b, 0xbd, 0x53, 0x34, 0xbb, 0x3c, 0x26, 0x69, 0x89, 0x3b,
  0xac, 0xee, 0x4e, 0xbd, 0xd3, 0xd4, 0xa1, 0xbe, 0x68, 0x79, 0xd1, 0xbe,
  0xc4, 0x5a, 0xf4, 0xbe, 0x50, 0xfb, 0x69, 0x3e, 0x65, 0x50, 0x1b, 0x3e,
  0xed, 0xc2, 0x85, 0x3e, 0x27, 0xdb, 0x37, 0x3e, 0x2d, 0x79, 0x98, 0x3e,
  0x58, 0x88, 0x89, 0x3e, 0x04, 0x97, 0xc1, 0x3e, 0x75, 0x7a, 0x65, 0x3e,
  0xe3, 0x3b, 0x4f, 0x3d, 0x1c, 0xb8, 0x08, 0xbe, 0x9d, 0x0a, 0x28, 0x3e,
  0x81, 0x04, 0x9b, 0x3d, 0xc8, 0xab, 0xbf, 0xbd, 0x7f, 0xbc, 0x0a, 0xbe,
  0x1e, 0x80, 0xe1, 0x3d, 0xc7, 0x11, 0x36, 0xbe, 0xad, 0x33, 0x9d, 0xbe,
  0x27, 0x94, 0x6f, 0xbe, 0x12, 0x7d, 0xa3, 0xbe, 0x29, 0x3e, 0xf7, 0x3d,
  0x40, 0x2d, 0x8d, 0x3b, 0x90, 0x54, 0x11, 0x3d, 0x1c, 0x0e, 0x8a, 0x3d,
  0x35, 0x75, 0xa7, 0x3d, 0x79, 0xa2, 0x86, 0x3e, 0x13, 0xf9, 0xf9, 0x3d,
  0xda, 0x5a, 0x66, 0x3d, 0xcf, 0xfb, 0x30, 0x3d, 0xe5, 0x35, 0xa4, 0x3d,
  0xdf, 0x26, 0xa2, 0x3d, 0xc9, 0x8d, 0x1d, 0xbe, 0x94, 0x18, 0x8a, 0x3e,
  0x6d, 0x37, 0x1b, 0x3e, 0x1a, 0x71, 0x90, 0xbd, 0xec, 0x65, 0x2c, 0xbe,
  0xc3, 0x1b, 0x72, 0x3e, 0xba, 0xd7, 0xb5, 0x3c, 0x95, 0x1d, 0x07, 0xbe,
  0x91, 0xe4, 0xe2, 0xbd, 0xe7, 0x1a, 0xb7, 0x3d, 0x56, 0x4a, 0xfe, 0xbd,
  0x92, 0x40, 0xfc, 0xbd, 0xe2, 0xe0, 0xff, 0xff, 0x10, 0x00, 0x00, 0x00,
  0x07, 0x00, 0x00, 0x00, 0x1c, 0x00, 0x00, 0x00, 0x38, 0x00, 0x00, 0x00,
  0x04, 0x00, 0x00, 0x00, 0x08, 0x00, 0x00, 0x00, 0x04, 0x00, 0x00, 0x00,
  0x03, 0x00, 0x00, 0x00, 0x01, 0x00, 0x00, 0x00, 0x18, 0x00, 0x00, 0x00,
  0x73, 0x65, 0x71, 0x75, 0x65, 0x6e, 0x74, 0x69, 0x61, 0x6c, 0x2f, 0x63,
  0x6f, 0x6e, 0x76, 0x32, 0x64, 0x2f, 0x43, 0x6f, 0x6e, 0x76, 0x32, 0x44,
  0x00, 0x00, 0x00, 0x00, 0xdc, 0xe0, 0xff, 0xff, 0xd2, 0xe1, 0xff, 0xff,
  0x04, 0x00, 0x00, 0x00, 0xc0, 0x00, 0x00, 0x00, 0x86, 0x9c, 0x55, 0xbe,
  0x0c, 0x5a, 0xcf, 0x3e, 0xd2, 0x85, 0x71, 0xbd, 0x1f, 0x17, 0x90, 0xbd,
  0x6d, 0xdc, 0x9a, 0x3d, 0x53, 0x6a, 0x8b, 0xbe, 0x88, 0x45, 0x6e, 0xbe,
  0x41, 0xff, 0x41, 0x3e, 0x87, 0xec, 0xd7, 0x3d, 0x7e, 0xc6, 0xb2, 0x3e,
  0xb2, 0x82, 0xbf, 0x3d, 0x6e, 0x4b, 0xf1, 0x3e, 0xf8, 0xd9, 0x8a, 0xbe,
  0xa1, 0x19, 0xd6, 0x3d, 0x7c, 0x3a, 0x44, 0xbe, 0x03, 0x70, 0x7f, 0x3d,
  0xcb, 0x9e, 0x4b, 0xbe, 0x7b, 0x7e, 0xba, 0x3e, 0x3b, 0x0e, 0x3f, 0x3c,
  0x14, 0x46, 0x67, 0xbb, 0xc5, 0xad, 0x05, 0x3e, 0xfa, 0x78, 0xbc, 0xbe,
  0x2a, 0xe4, 0x07, 0xbe, 0xf6, 0x03, 0x68, 0x3e, 0xa2, 0xb4, 0x18, 0x3e,
  0x6a, 0x47, 0xc3, 0x3e, 0x42, 0x31, 0xef, 0x3d, 0x26, 0xf0, 0x2a, 0x3c,
  0x0f, 0xa3, 0x95, 0x3b, 0x5e, 0x3d, 0x78, 0x3e, 0x55, 0x52, 0x1b, 0xbe,
  0x5e, 0x67, 0x20, 0x3e, 0x7d, 0xaa, 0xb0, 0xbe, 0xf9, 0x1a, 0xac, 0x3e,
  0x60, 0xee, 0xb4, 0x3c, 0x5a, 0x9c, 0x06, 0x3c, 0x45, 0x30, 0x84, 0x3d,
  0x7d, 0x10, 0xc1, 0xbe, 0xcc, 0x06, 0xea, 0xbd, 0xe2, 0x2b, 0x7f, 0x3e,
  0x2c, 0xbb, 0xd1, 0x3d, 0x1d, 0x3f, 0xae, 0x3e, 0x92, 0x77, 0x35, 0x3e,
  0xae, 0xa8, 0xa1, 0x3d, 0x4b, 0x3e, 0x74, 0x3e, 0xc1, 0x09, 0x82, 0x3e,
  0x33, 0x54, 0x97, 0xbe, 0x00, 0x54, 0xd3, 0x3d, 0xfa, 0xe1, 0xff, 0xff,
  0x10, 0x00, 0x00, 0x00, 0x06, 0x00, 0x00, 0x00, 0x14, 0x00, 0x00, 0x00,
  0x30, 0x00, 0x00, 0x00, 0x02, 0x00, 0x00, 0x00, 0x03, 0x00, 0x00, 0x00,
  0x10, 0x00, 0x00, 0x00, 0x19, 0x00, 0x00, 0x00, 0x73, 0x65, 0x71, 0x75,
  0x65, 0x6e, 0x74, 0x69, 0x61, 0x6c, 0x2f, 0x64, 0x65, 0x6e, 0x73, 0x65,
  0x5f, 0x31, 0x2f, 0x4d, 0x61, 0x74, 0x4d, 0x75, 0x6c, 0x00, 0x00, 0x00,
  0xec, 0xe1, 0xff, 0xff, 0xe2, 0xe2, 0xff, 0xff, 0x04, 0x00, 0x00, 0x00,
  0x00, 0x1c, 0x00, 0x00, 0x70, 0x83, 0xda, 0x3d, 0x06, 0xc3, 0xa9, 0x3d,
  0x6b, 0x4d, 0x43, 0x3e, 0x4f, 0x04, 0x3a, 0x3e, 0x9b, 0xd9, 0x97, 0xbd,
  0x02, 0xb0, 0x0b, 0x3e, 0xef, 0x02, 0x11, 0x3f, 0x0d, 0x79, 0x7e, 0x3c,
  0xc6, 0x68, 0xef, 0xbd, 0x8e, 0x76, 0xd1, 0xba, 0x9b, 0xea, 0x0c, 0x3d,
  0x4a, 0x7d, 0x2d, 0x3d, 0x42, 0x3e, 0x12, 0x3d, 0x8d, 0xd1, 0xd0, 0x3c,
  0xb3, 0xb6, 0x37, 0x3e, 0xf8, 0x44, 0x64, 0x3d, 0xb7, 0x63, 0x01, 0x3c,
  0x00, 0x9d, 0x19, 0x3e, 0x50, 0xea, 0x4a, 0xbc, 0x8d, 0xb5, 0x01, 0xbb,
  0x74, 0x8e, 0xf7, 0xbd, 0x0a, 0x1f, 0x0e, 0x3d, 0x02, 0x4f, 0xd5, 0xbd,
  0x38, 0x76, 0xfb, 0x3d, 0xd9, 0x19, 0x3a, 0x3c, 0x0d, 0x21, 0x0a, 0x3d,
  0x5c, 0xe9, 0xad, 0xbd, 0xb0, 0x7e, 0xc7, 0x3e, 0x54, 0x20, 0xd3, 0xbd,
  0xf7, 0x1b, 0xec, 0xbc, 0xe9, 0x49, 0x6a, 0xbe, 0xd5, 0x80, 0xab, 0xbe,
  0x49, 0xa5, 0xe6, 0xbc, 0x17, 0x75, 0x97, 0x3d, 0x27, 0x63, 0x91, 0xbe,
  0x62, 0x55, 0x50, 0xbe, 0xad, 0xdf, 0x9b, 0xbe, 0xc3, 0x8f, 0x1a, 0xbe,
  0xfe, 0x29, 0x80, 0xbe, 0x46, 0xf6, 0x7b, 0x3d, 0x02, 0xb1, 0x8f, 0xbd,
  0x49, 0xa1, 0xa6, 0x3c, 0xee, 0xe7, 0xa9, 0xbd, 0x28, 0x9b, 0x83, 0x3d,
  0x6b, 0xa1, 0x4e, 0x3c, 0x7e, 0xf2, 0xd8, 0xbc, 0xaf, 0x01, 0x9e, 0xbd,
  0xcc, 0xa0, 0x9b, 0xbe, 0x5e, 0x79, 0xab, 0x3d, 0x37, 0x53, 0xaa, 0x3c,
  0x19, 0xe2, 0xac, 0xbd, 0x5a, 0x3a, 0x64, 0x3c, 0x05, 0x1e, 0xbe, 0xbe,
  0xee, 0xf7, 0x39, 0xbe, 0xd9, 0x5f, 0x0a, 0xbe, 0xc4, 0xe1, 0xd4, 0x3d,
  0x2c, 0xa4, 0xa7, 0xbc, 0x21, 0x7d, 0x58, 0xbd, 0x47, 0xa7, 0x4d, 0x3d,
  0x5b, 0x65, 0x4b, 0xbe, 0x2f, 0x7b, 0x87, 0x3c, 0xbc, 0xf4, 0x0e, 0xbd,
  0x36, 0x98, 0x12, 0xbe, 0x1c, 0x37, 0xc6, 0xbe, 0xa3, 0xdc, 0x03, 0x3e,
  0xb1, 0xa9, 0x00, 0x3d, 0x44, 0x47, 0xb3, 0xba, 0xd4, 0xb8, 0x8c, 0xbc,
  0x9d, 0xb9, 0x32, 0xbe, 0x4a, 0xb4, 0xdd, 0x3e, 0xc5, 0x5d, 0x6c, 0xbe,
  0xde, 0x85, 0x92, 0x3d, 0xc6, 0xdf, 0x75, 0xbe, 0x3d, 0x6e, 0xd9, 0xbd,
  0xac, 0xa1, 0x6f, 0x3b, 0xcf, 0xf3, 0x66, 0x3c, 0x7f, 0x58, 0xa3, 0x3d,
  0x03, 0x19, 0x95, 0xbc, 0x2f, 0x78, 0x83, 0xbd, 0x29, 0x96, 0xf5, 0x3c,
  0x89, 0xa6, 0x98, 0x3e, 0xa2, 0x62, 0x10, 0x3d, 0x28, 0xc3, 0x05, 0x3d,
  0xbd, 0xde, 0x0e, 0x3c, 0xc5, 0x8d, 0x1d, 0xbe, 0xb4, 0xd4, 0x94, 0x3e,
  0xa0, 0xab, 0xbb, 0xbe, 0x14, 0xf6, 0xfe, 0x3c, 0x28, 0xf5, 0x6c, 0xbe,
  0x87, 0xbf, 0x97, 0x3c, 0xf5, 0xc3, 0x45, 0x3d, 0xfb, 0xc2, 0xdb, 0x3e,
  0x38, 0x8c, 0xd0, 0x3d, 0x1c, 0x12, 0xf1, 0x3b, 0xa8, 0xea, 0xcb, 0x3b,
  0x9b, 0x6a, 0x8b, 0x3e, 0x8a, 0x9b, 0x50, 0xbc, 0x5b, 0x80, 0x3c, 0x3d,
  0x4d, 0x30, 0xbe, 0x3b, 0xf9, 0x1f, 0x08, 0x3d, 0xaa, 0xc2, 0xe6, 0xbc,
  0x0b, 0xcd, 0x4e, 0x3d, 0x69, 0xff, 0xd8, 0x3d, 0x51, 0xad, 0x50, 0x3c,
  0xaa, 0x3a, 0xa7, 0xbd, 0xbf, 0x4e, 0xaf, 0x3c, 0x17, 0x39, 0x24, 0x3c,
  0x30, 0x3c, 0x0f, 0x3d, 0x13, 0x5c, 0xc9, 0x3d, 0x29, 0xa8, 0x72, 0x3c,
  0xd9, 0x89, 0xae, 0x3d, 0xaa, 0x51, 0xcc, 0xbb, 0x52, 0x70, 0x38, 0xbe,
  0xad, 0x46, 0xd8, 0x3d, 0x07, 0x33, 0x95, 0x3d, 0x24, 0x94, 0xfb, 0xbd,
  0x88, 0xf1, 0xb1, 0xbe, 0x8d, 0xf9, 0x88, 0xbe, 0x66, 0x19, 0x34, 0x3e,
  0xfe, 0x67, 0x90, 0x3e, 0xd5, 0xb2, 0x40, 0xbe, 0x2b, 0x8c, 0xaa, 0xbe,
  0x6d, 0xb3, 0x0b, 0x3e, 0x2a, 0x8a, 0x77, 0xbe, 0x99, 0x81, 0x8d, 0x3d,
  0x0f, 0x39, 0x08, 0x3c, 0x8e, 0x29, 0x97, 0x3d, 0x21, 0xb5, 0x83, 0xbe,
  0xf7, 0x64, 0x89, 0xbd, 0x6d, 0x9b, 0xdd, 0x3d, 0x72, 0xec, 0x56, 0xbc,
  0x0b, 0xac, 0x94, 0xbe, 0x15, 0xb5, 0xf7, 0xbe, 0xda, 0xff, 0x38, 0xbe,
  0x3e, 0xae, 0xea, 0x3d, 0x53, 0x48, 0xa6, 0x3e, 0x3a, 0xa8, 0x1a, 0xbe,
  0x3d, 0xcb, 0xea, 0x3c, 0xb9, 0xd5, 0x3d, 0x3b, 0x09, 0xe8, 0xf9, 0xbd,
  0xbd, 0x0a, 0xcb, 0x3e, 0xef, 0x1b, 0x1b, 0x3d, 0xd4, 0x2f, 0xa9, 0x3e,
  0xa5, 0xf4, 0xe3, 0xbd, 0x7d, 0x49, 0x3d, 0x3e, 0xf6, 0x68, 0x83, 0x3e,
  0x94, 0x01, 0xd9, 0xbd, 0x60, 0xe7, 0x35, 0xbe, 0xca, 0x56, 0x6d, 0xbe,
  0x61, 0x9b, 0x86, 0x3e, 0x61, 0xe2, 0x6d, 0x3c, 0xe8, 0xea, 0x62, 0x3e,
  0xd1, 0x3f, 0x6f, 0xbd, 0xb9, 0x17, 0x73, 0x3e, 0xa6, 0xbb, 0x81, 0xbd,
  0xe1, 0x7e, 0x29, 0x3e, 0xee, 0x40, 0xe9, 0x3e, 0xb7, 0x67, 0x82, 0xbd,
  0x9e, 0x3d, 0x82, 0x3e, 0x74, 0x40, 0xb6, 0xbd, 0x93, 0x66, 0x7f, 0x3d,
  0xf4, 0x0d, 0xbc, 0x3e, 0xc9, 0x3f, 0x1f, 0x3d, 0x1b, 0x5e, 0xaf, 0xbd,
  0x98, 0x6b, 0x02, 0xbf, 0x41, 0x75, 0xba, 0x3d, 0xb3, 0x8c, 0xc5, 0xbe,
  0x2e, 0xaa, 0x5d, 0x3e, 0x1c, 0x13, 0xb4, 0xbd, 0xc1, 0x59, 0x07, 0x3e,
  0x5f, 0xaa, 0xe3, 0x3c, 0x10, 0xbd, 0xdd, 0xbd, 0x9a, 0xf9, 0x7f, 0x3e,
  0x66, 0xbd, 0x33, 0x3d, 0x6e, 0xf0, 0x06, 0xbe, 0xbc, 0x77, 0x13, 0xbe,
  0xd0, 0x21, 0xd1, 0xbe, 0x6e, 0x7c, 0xee, 0x3e, 0xc3, 0xe7, 0x5c, 0x3e,
  0xa0, 0x10, 0x0b, 0xbe, 0x89, 0xba, 0x15, 0xbf, 0x02, 0x92, 0xed, 0xbe,
  0xc2, 0x80, 0x31, 0xbe, 0x4b, 0x6d, 0x4d, 0x3e, 0x07, 0xa9, 0x19, 0xbe,
  0xde, 0x83, 0x71, 0xbd, 0x4d, 0x9d, 0xca, 0xbd, 0x5e, 0x52, 0xb0, 0xbc,
  0x06, 0x57, 0x8d, 0x3e, 0xab, 0x89, 0xa9, 0xbc, 0xae, 0x3c, 0x97, 0xbe,
  0x87, 0x3e, 0x04, 0xbf, 0x81, 0xd1, 0xe9, 0xbd, 0xd2, 0x5a, 0x86, 0x3e,
  0x8d, 0x88, 0xf1, 0x39, 0x54, 0x96, 0x40, 0xbe, 0xb2, 0x14, 0xf2, 0xbe,
  0xae, 0x48, 0x95, 0xbe, 0xfa, 0x80, 0xd1, 0xbd, 0x1a, 0xea, 0xff, 0x3e,
  0xc2, 0x55, 0x37, 0xbe, 0x8f, 0x1a, 0xfe, 0x3c, 0x9f, 0xc8, 0xbe, 0xbb,
  0xb3, 0xcc, 0xc2, 0xbe, 0xbd, 0x36, 0x86, 0x3e, 0x7c, 0xaf, 0xd5, 0xbd,
  0x98, 0x88, 0xa5, 0x3d, 0x9c, 0xb2, 0xfe, 0xbe, 0xb2, 0xb7, 0xb0, 0xbe,
  0x46, 0x72, 0x64, 0xbc, 0xe4, 0xc2, 0x59, 0xbd, 0xba, 0xa7, 0x74, 0xbe,
  0xba, 0xc8, 0x76, 0xbe, 0xe0, 0x78, 0x77, 0xbe, 0x46, 0x3b, 0x96, 0x3c,
  0x27, 0xf4, 0x23, 0x3d, 0xcf, 0xb0, 0xf3, 0x3c, 0x8b, 0xbc, 0x17, 0x3d,
  0x09, 0x39, 0x10, 0xbe, 0x3a, 0xa6, 0x16, 0xbe, 0xfc, 0xd2, 0x6c, 0x3e,
  0x94, 0x4e, 0xe9, 0xbd, 0x2b, 0xd7, 0x2d, 0x3d, 0xfb, 0x78, 0x49, 0xbe,
  0x49, 0x01, 0x50, 0xbe, 0xcb, 0x87, 0x98, 0xbe, 0x3c, 0x3a, 0x77, 0xbe,
  0x80, 0x28, 0x1d, 0xbe, 0x09, 0x5a, 0x1f, 0x3e, 0x59, 0xc0, 0x36, 0x3e,
  0x68, 0x56, 0x7f, 0xbe, 0x73, 0x87, 0x99, 0xbe, 0xa3, 0x2e, 0xcd, 0x3e,
  0x74, 0x2a, 0xdf, 0x3d, 0x6d, 0xab, 0xbe, 0xbd, 0x14, 0x0c, 0x13, 0x3e,
  0xd3, 0x94, 0x86, 0xbe, 0x12, 0x20, 0xd9, 0x3d, 0xb1, 0x64, 0x81, 0xbd,
  0xb0, 0x49, 0x36, 0xbe, 0xf1, 0xdc, 0xf6, 0x3d, 0x3a, 0x71, 0x09, 0xbe,
  0x8b, 0x4f, 0x2d, 0xbe, 0x68, 0x09, 0x14, 0xbe, 0xf0, 0x66, 0x28, 0x3e,
  0x34, 0x1e, 0x87, 0x3e, 0x40, 0xc5, 0xd8, 0xbd, 0xea, 0x73, 0xe5, 0x3d,
  0x40, 0x41, 0x82, 0x3e, 0x33, 0x27, 0x9e, 0xbd, 0x51, 0x77, 0x71, 0xbc,
  0x3a, 0x37, 0xdf, 0x3c, 0xb4, 0x97, 0xf1, 0x3c, 0x05, 0xcd, 0xba, 0x3d,
  0x9f, 0xee, 0x55, 0x3e, 0x2e, 0x42, 0x9e, 0x3e, 0x07, 0x18, 0xb6, 0x3b,
  0x80, 0x63, 0x1a, 0xbe, 0x05, 0x45, 0x08, 0x3e, 0x62, 0x4f, 0x19, 0xbe,
  0xc4, 0x3b, 0x81, 0x3e, 0x68, 0x79, 0x91, 0x3e, 0xc6, 0x83, 0x09, 0x3a,
  0xf7, 0x14, 0xdb, 0xbb, 0xd0, 0x96, 0x68, 0x3e, 0x4c, 0x70, 0x58, 0xbe,
  0x33, 0xc0, 0x65, 0xbc, 0xc6, 0x6a, 0xad, 0xbd, 0x9f, 0x4d, 0x01, 0xbe,
  0x59, 0xaa, 0x26, 0x3c, 0x29, 0x0e, 0xaf, 0x3d, 0x87, 0xbb, 0x03, 0x3e,
  0x1e, 0x5f, 0xaa, 0xbd, 0xcf, 0xcf, 0x1b, 0xbe, 0x5c, 0xeb, 0x7a, 0x3d,
  0xf9, 0x02, 0x10, 0xbe, 0xf9, 0x5c, 0x9c, 0x3e, 0x12, 0x99, 0x8a, 0x3d,
  0x43, 0xaf, 0x0e, 0x3d, 0x12, 0x84, 0xfb, 0xbc, 0xac, 0x5d, 0xf0, 0x3e,
  0x40, 0x00, 0x88, 0xbc, 0x89, 0x61, 0x45, 0x3d, 0x2d, 0x93, 0x38, 0x3d,
  0xcc, 0x0c, 0x22, 0xbd, 0xd9, 0xf0, 0xb4, 0x3d, 0xb5, 0xfc, 0x05, 0x3d,
  0xcb, 0xba, 0xde, 0x3d, 0x7a, 0xcc, 0x83, 0x3e, 0x37, 0xd0, 0x85, 0xbd,
  0x18, 0x22, 0x7b, 0x3d, 0x31, 0xfd, 0x4c, 0xbd, 0xb9, 0x8a, 0x16, 0x3e,
  0x7e, 0x3c, 0xab, 0xbd, 0x2c, 0x01, 0x23, 0xbd, 0xea, 0x21, 0x99, 0xbd,
  0xe6, 0x7e, 0xcd, 0x3e, 0x80, 0x35, 0x2d, 0xbd, 0x8b, 0x59, 0x0a, 0x3e,
  0x3f, 0x22, 0x8f, 0x3e, 0xb6, 0xe2, 0x46, 0xbe, 0x1e, 0xf3, 0xf0, 0x3b,
  0x9a, 0x4b, 0x54, 0xbc, 0x6c, 0xe8, 0xb9, 0x3d, 0x9b, 0x42, 0xf5, 0xbb,
  0x60, 0xfa, 0x1a, 0xbe, 0x92, 0x46, 0x5e, 0x3d, 0x0d, 0x86, 0x83, 0xbd,
  0x3c, 0x0e, 0x94, 0x3d, 0xe8, 0x25, 0xd4, 0x3d, 0x63, 0xb1, 0x0a, 0x3d,
  0xa0, 0x8c, 0x94, 0xbd, 0xca, 0x18, 0x21, 0x3f, 0x46, 0xb4, 0x03, 0xbe,
  0x32, 0x38, 0xe6, 0xbd, 0xd1, 0x43, 0x26, 0x3e, 0x58, 0x94, 0x5e, 0xbe,
  0x5b, 0x2e, 0x46, 0x3d, 0xd0, 0x4b, 0x94, 0x3e, 0x6f, 0xb0, 0x06, 0x3e,
  0x54, 0x8a, 0xc9, 0xbd, 0x84, 0x0a, 0x67, 0xbd, 0x3e, 0x35, 0x99, 0x3c,
  0x68, 0xd4, 0x36, 0xbe, 0x19, 0x82, 0x37, 0x3e, 0x81, 0x3a, 0x41, 0xbc,
  0x17, 0x07, 0xf9, 0x3d, 0x02, 0x2e, 0x18, 0xbc, 0x7a, 0x8a, 0xa7, 0x3e,
  0x9a, 0xa4, 0xcc, 0xbd, 0x1c, 0x0f, 0xa4, 0xbc, 0xeb, 0xe0, 0x80, 0xbb,
  0xde, 0xbe, 0x04, 0xbf, 0x01, 0x64, 0x75, 0x3d, 0x1c, 0x45, 0x30, 0xbd,
  0x94, 0xdb, 0x14, 0xbd, 0xd1, 0x16, 0x89, 0x3e, 0x64, 0x3e, 0xc9, 0xbd,
  0x03, 0x78, 0xc2, 0xbd, 0xdf, 0xf5, 0xdc, 0xbc, 0xb4, 0x52, 0xf6, 0x3d,
  0xb6, 0x51, 0x0c, 0xbd, 0xd9, 0xc6, 0x4f, 0xbd, 0x5d, 0x26, 0xa0, 0xbd,
  0x0c, 0xc4, 0x01, 0x3d, 0xd7, 0x66, 0xcb, 0xbb, 0xc5, 0xfa, 0xe0, 0xbd,
  0xcc, 0x0c, 0x7b, 0x3d, 0xcd, 0xf1, 0xde, 0xbd, 0x57, 0xf8, 0xfe, 0xbd,
  0x39, 0x39, 0x9d, 0x3d, 0x2b, 0xbd, 0x7c, 0xbc, 0xf7, 0x60, 0x92, 0x3d,
  0x91, 0x0c, 0x1f, 0xbe, 0x16, 0x6d, 0xef, 0xbd, 0x06, 0x87, 0x40, 0x3d,
  0xa7, 0x56, 0x69, 0x3e, 0x89, 0xe2, 0xb7, 0x3d, 0x2b, 0x2b, 0xed, 0x3c,
  0x2f, 0x76, 0x01, 0xbe, 0x29, 0xa0, 0x5b, 0x3e, 0x44, 0xce, 0xba, 0xbd,
  0xdf, 0x8a, 0x6b, 0xbd, 0x94, 0xf0, 0x3b, 0x3e, 0xce, 0x10, 0x9e, 0xbd,
  0x01, 0xfb, 0xa3, 0x3e, 0x6e, 0xd5, 0x34, 0xbc, 0x6e, 0x5e, 0xf1, 0xbd,
  0x24, 0x21, 0xd0, 0x3d, 0xb1, 0x2e, 0xa9, 0x3d, 0xa5, 0x24, 0xba, 0x3d,
  0xe8, 0xe1, 0x00, 0xbe, 0x36, 0x31, 0x8e, 0x3e, 0x1c, 0x0d, 0xbd, 0xbd,
  0xd8, 0x4e, 0xad, 0x3d, 0x20, 0xee, 0xfc, 0x3c, 0x74, 0xf0, 0xef, 0x3c,
  0x1d, 0x1b, 0x1a, 0x3e, 0x4d, 0x28, 0x31, 0xbe, 0x86, 0xa5, 0x36, 0xbd,
  0xe8, 0x99, 0x92, 0xbc, 0xb1, 0x0d, 0x19, 0x3e, 0x96, 0xa7, 0x16, 0x3e,
  0x7e, 0xc9, 0x43, 0x3e, 0x22, 0x95, 0x55, 0x3e, 0xf1, 0xcf, 0x2c, 0x3d,
  0x22, 0xca, 0x89, 0x3d, 0x88, 0xbf, 0xfa, 0xbc, 0x0e, 0x53, 0x94, 0x3e,
  0xe2, 0xc2, 0xf4, 0x3d, 0xd1, 0x68, 0xcf, 0x3d, 0x27, 0x83, 0x07, 0x3e,
  0x2c, 0x6f, 0xf0, 0x3d, 0x84, 0xff, 0xb1, 0x3d, 0x67, 0x28, 0xa6, 0xbe,
  0xa0, 0x9f, 0xab, 0x3e, 0x2d, 0xb0, 0x23, 0xbe, 0x21, 0x31, 0xa7, 0x3c,
  0x07, 0x75, 0x01, 0x3d, 0xd1, 0x9a, 0x23, 0x3e, 0xa4, 0x21, 0x2c, 0x3e,
  0x55, 0xba, 0xc6, 0xbc, 0xa6, 0x5a, 0x08, 0x3e, 0xce, 0xc3, 0xa6, 0xbd,
  0xaf, 0x57, 0x95, 0x3e, 0x00, 0x89, 0x3f, 0x3e, 0xa2, 0xc5, 0x26, 0x3e,
  0x4d, 0x71, 0x00, 0xbe, 0x35, 0xfe, 0x94, 0xbd, 0x08, 0x5b, 0x8d, 0x3c,
  0x6f, 0xc3, 0x7d, 0xbd, 0xd8, 0xac, 0x36, 0x3e, 0xf6, 0xea, 0x1e, 0xbe,
  0xc3, 0x14, 0x1a, 0x3e, 0x09, 0xd1, 0x79, 0x3d, 0x2a, 0xaa, 0xdf, 0xbd,
  0x26, 0x80, 0x2b, 0x3e, 0x8e, 0x9a, 0xad, 0xbe, 0xce, 0x54, 0xd0, 0xbd,
  0x68, 0x07, 0x91, 0xbd, 0x65, 0x96, 0x2a, 0x3e, 0x2a, 0xa0, 0x3d, 0xbe,
  0x22, 0x6e, 0xb3, 0xbc, 0x94, 0x29, 0x7e, 0xbd, 0xbe, 0x55, 0x01, 0xbe,
  0x23, 0x6b, 0x6b, 0xbe, 0x84, 0x6c, 0xe9, 0xbd, 0x09, 0x35, 0xd1, 0x3d,
  0x42, 0x0f, 0x19, 0x3c, 0x58, 0x09, 0x37, 0xbe, 0x79, 0xea, 0x4a, 0xbb,
  0xfa, 0x67, 0xb3, 0xbc, 0xb2, 0xdf, 0xe1, 0xbd, 0x2e, 0xeb, 0x46, 0xbd,
  0x1f, 0x77, 0xb7, 0xbe, 0x06, 0x91, 0x86, 0xbe, 0xdb, 0xf5, 0x51, 0xbe,
  0x6b, 0x61, 0x2a, 0xbe, 0x3a, 0xa9, 0x58, 0x3e, 0x76, 0x92, 0x2f, 0x3c,
  0x67, 0x61, 0x78, 0xbe, 0x63, 0xbd, 0x31, 0x3e, 0x84, 0x48, 0x6b, 0x3d,
  0x71, 0xdf, 0xf5, 0x3d, 0x2e, 0xeb, 0x08, 0xbe, 0x63, 0x00, 0x6c, 0xbe,
  0x29, 0xfd, 0x48, 0xbd, 0xb8, 0x06, 0xd1, 0x3d, 0x1b, 0x31, 0x9e, 0xbe,
  0x7e, 0xaa, 0xd9, 0xbe, 0x8a, 0x38, 0xde, 0xbd, 0x7b, 0x7a, 0xaf, 0xbe,
  0x31, 0xba, 0x8b, 0xbe, 0x82, 0x90, 0x82, 0xbe, 0x45, 0xb2, 0xdb, 0xbd,
  0x25, 0x34, 0xa2, 0xbd, 0x06, 0xd3, 0x57, 0xbc, 0xef, 0x42, 0x76, 0xbe,
  0xe5, 0xe2, 0x45, 0xbf, 0xbc, 0xab, 0xe6, 0xbe, 0x76, 0xd8, 0xfe, 0xbe,
  0xa8, 0x7b, 0x82, 0xbe, 0x06, 0x3e, 0x5e, 0xbe, 0xca, 0xa2, 0xa9, 0xbe,
  0x7e, 0x7c, 0xff, 0xbd, 0x59, 0x5e, 0xdf, 0xbe, 0x94, 0x88, 0x51, 0xbd,
  0x5f, 0x9a, 0xdc, 0xbd, 0x64, 0x6c, 0xe1, 0xbd, 0x5e, 0xb7, 0xd1, 0xbd,
  0xc9, 0xd6, 0x94, 0xbb, 0x02, 0x8f, 0xe8, 0xbd, 0x23, 0x1d, 0xbd, 0x3d,
  0x16, 0x36, 0xb3, 0xbc, 0x88, 0x61, 0x48, 0xbf, 0x33, 0x32, 0x51, 0x3d,
  0xa7, 0xb9, 0x90, 0xbe, 0x97, 0x62, 0x1a, 0xbe, 0xf9, 0x17, 0xcb, 0xbd,
  0x29, 0x0d, 0x82, 0x3d, 0x3b, 0xf6, 0xcf, 0xbd, 0xce, 0x22, 0xae, 0xbe,
  0x90, 0x11, 0x62, 0xbd, 0x0c, 0xdb, 0x7f, 0xbe, 0x7d, 0x32, 0x1d, 0xbe,
  0xbd, 0xca, 0xb6, 0xbd, 0x2a, 0xc1, 0x52, 0xbe, 0x56, 0x20, 0x0b, 0xbe,
  0x56, 0xf2, 0xe0, 0x3c, 0xcb, 0xe4, 0x82, 0x3c, 0x1d, 0x41, 0x32, 0xbf,
  0xab, 0x05, 0x1e, 0xbe, 0x8a, 0x7a, 0xd3, 0xbe, 0x0c, 0xad, 0x52, 0xbe,
  0x0c, 0xa6, 0xa9, 0xbd, 0x91, 0x1c, 0x80, 0xbd, 0x3a, 0xe5, 0xcd, 0xbe,
  0x19, 0x1a, 0xb0, 0xbe, 0xaf, 0x4b, 0x3e, 0xbe, 0x0b, 0x0e, 0xd5, 0xbd,
  0xee, 0x8e, 0xad, 0xbe, 0x89, 0x7c, 0x98, 0xbe, 0x97, 0x3c, 0xbb, 0xbd,
  0xaf, 0x57, 0x58, 0x3d, 0xc1, 0x3d, 0x0d, 0x3d, 0x50, 0x24, 0x51, 0xbd,
  0x07, 0xb9, 0x57, 0xbf, 0x1a, 0x5f, 0x13, 0x3d, 0x79, 0xd8, 0x09, 0xbf,
  0xa6, 0xe7, 0x53, 0xbe, 0x2f, 0xbb, 0x1b, 0xbe, 0x60, 0x3b, 0xae, 0xbe,
  0x40, 0xf6, 0x83, 0x3e, 0x15, 0x73, 0xb5, 0xbe, 0x58, 0x4d, 0x80, 0xbd,
  0x88, 0xcf, 0xd8, 0xbd, 0x8a, 0xa1, 0x7c, 0xbc, 0xcd, 0x81, 0xc6, 0x3e,
  0x48, 0x52, 0x87, 0x3d, 0x6a, 0x91, 0x31, 0x3c, 0x89, 0x8e, 0xb9, 0xbc,
  0xaf, 0x98, 0x9d, 0x3d, 0xf5, 0xe6, 0x87, 0xbe, 0x1f, 0xf1, 0xe2, 0xbc,
  0xe5, 0x8d, 0xa2, 0x3d, 0x11, 0x8b, 0xa6, 0xbd, 0x91, 0x34, 0xd3, 0x3d,
  0x7d, 0x11, 0xb2, 0x3e, 0x41, 0xeb, 0x13, 0x3f, 0x83, 0x86, 0x06, 0xbd,
  0x06, 0x0a, 0xb9, 0xbc, 0x17, 0x69, 0x92, 0x3e, 0x4a, 0x22, 0x35, 0x3e,
  0xba, 0xc0, 0x06, 0x3f, 0x0c, 0x9b, 0x44, 0xbe, 0x78, 0x9e, 0xfa, 0xbd,
  0x46, 0x7e, 0x85, 0xbd, 0x58, 0x6f, 0x51, 0x3d, 0x1b, 0x85, 0x7a, 0xbe,
  0x92, 0x80, 0xde, 0x3e, 0xda, 0x6a, 0x3f, 0x3d, 0xd8, 0xe8, 0x1a, 0x3e,
  0x08, 0xdd, 0x18, 0x3d, 0x74, 0x07, 0x9e, 0x3e, 0x42, 0x82, 0x61, 0x3e,
  0x65, 0x2e, 0xf6, 0xbc, 0x08, 0x90, 0xa9, 0xbc, 0x54, 0x82, 0x35, 0x3e,
  0x84, 0x57, 0x19, 0x3d, 0x8b, 0xda, 0x89, 0x3e, 0x60, 0xf7, 0x34, 0xbd,
  0x3a, 0xd3, 0xa2, 0xbd, 0xd2, 0x64, 0x5a, 0xbe, 0xa3, 0xdd, 0xbd, 0x3d,
  0x1a, 0xf3, 0x07, 0x3d, 0xaa, 0x9a, 0xe7, 0xbc, 0xfb, 0xad, 0xc1, 0x3c,
  0x31, 0xc9, 0xda, 0x3d, 0x16, 0xa6, 0x33, 0x3e, 0x71, 0x10, 0x7d, 0x3e,
  0x08, 0xa7, 0x79, 0xbe, 0x7d, 0x6a, 0x20, 0x3e, 0xf4, 0x68, 0xe0, 0x3d,
  0x45, 0x01, 0xa1, 0x3f, 0xc3, 0xe6, 0xc4, 0xbe, 0x82, 0x57, 0xb9, 0xbe,
  0xce, 0x84, 0x42, 0x3d, 0x17, 0x40, 0x9a, 0x3e, 0x85, 0x6b, 0x09, 0xbd,
  0x9a, 0x51, 0xda, 0xbe, 0xbe, 0x2e, 0x90, 0xbc, 0x23, 0x37, 0x73, 0xbe,
  0x54, 0x7a, 0x2c, 0xbd, 0xaf, 0x21, 0x7c, 0xbd, 0x4e, 0xa3, 0x1e, 0x3e,
  0x0c, 0x70, 0x71, 0xbe, 0x2f, 0xc1, 0x0e, 0x3e, 0xce, 0xba, 0x6b, 0x3e,
  0x73, 0xcb, 0xf2, 0x3c, 0x0a, 0x4b, 0xc7, 0x3f, 0x63, 0xce, 0x98, 0xbe,
  0xc6, 0xdf, 0x37, 0x3d, 0xf8, 0xbc, 0x91, 0x3e, 0xe8, 0x82, 0x77, 0x3e,
  0x8b, 0x0a, 0xc9, 0xbd, 0xa2, 0x84, 0xa9, 0xbd, 0x59, 0x7b, 0x8b, 0xbd,
  0xc6, 0x6e, 0x8f, 0xbe, 0x00, 0x23, 0x84, 0x3e, 0xf6, 0xba, 0xa3, 0x3c,
  0x25, 0xa3, 0xe0, 0x3d, 0xe5, 0x0c, 0x9a, 0x3d, 0xa7, 0x99, 0x0c, 0x3e,
  0xc8, 0x9d, 0x5b, 0x3e, 0x5e, 0xf0, 0x55, 0xbd, 0xeb, 0x08, 0xfd, 0x3f,
  0xb5, 0xcb, 0x54, 0xbe, 0x69, 0x69, 0x7c, 0x3e, 0x2c, 0x5a, 0x54, 0x3e,
  0xda, 0x6b, 0x21, 0xbc, 0xf2, 0x8f, 0x14, 0xbe, 0x4a, 0x64, 0x05, 0x3e,
  0xfd, 0xf2, 0xb3, 0xbd, 0x63, 0x8c, 0x8f, 0x3e, 0x65, 0x52, 0x75, 0x3e,
  0x52, 0x87, 0xfc, 0xbc, 0xfb, 0xd8, 0xa1, 0x3e, 0x72, 0xa4, 0x09, 0xbd,
  0x35, 0x17, 0x29, 0x3e, 0x7d, 0xed, 0xd5, 0x3e, 0x4a, 0x43, 0xb3, 0x3d,
  0x1f, 0x3f, 0xe0, 0x3f, 0xcf, 0xb9, 0x8a, 0xbe, 0x48, 0x50, 0x8c, 0x3e,
  0xd8, 0x35, 0x26, 0xbe, 0x8a, 0x65, 0x8d, 0x3e, 0x3d, 0x52, 0x05, 0xbe,
  0xba, 0x4d, 0x0b, 0x3d, 0x4e, 0xc1, 0x93, 0xbd, 0x3d, 0xed, 0xc8, 0x3d,
  0x14, 0x06, 0x63, 0x3e, 0x95, 0x66, 0x2c, 0xbd, 0x25, 0xf1, 0xc9, 0x3b,
  0x7c, 0x06, 0xcb, 0xbd, 0xab, 0x24, 0xc5, 0xbe, 0xae, 0x14, 0x5f, 0x3e,
  0x94, 0xfe, 0xc7, 0x39, 0x0c, 0xbc, 0xf8, 0x3f, 0xdf, 0xec, 0xd4, 0xbe,
  0xa8, 0xd2, 0x59, 0xbe, 0x45, 0xe5, 0x4f, 0x3c, 0x17, 0xea, 0x84, 0x3e,
  0x14, 0x69, 0x99, 0xbe, 0x37, 0x4b, 0xe2, 0xbd, 0x96, 0x89, 0xc9, 0xbd,
  0x6e, 0x95, 0x55, 0x3e, 0x0e, 0xf4, 0xc3, 0x3d, 0xcf, 0xe4, 0x50, 0xbd,
  0x56, 0xc8, 0x3d, 0xbd, 0x54, 0xd7, 0xad, 0xbe, 0x83, 0xbb, 0xd2, 0xbe,
  0x52, 0x78, 0xf0, 0x3d, 0x27, 0x66, 0x68, 0xbd, 0xc4, 0xa6, 0xc7, 0x3f,
  0xa3, 0x2b, 0xee, 0xbe, 0xe3, 0x70, 0x35, 0xbe, 0xf5, 0xf3, 0x84, 0xbe,
  0x12, 0x25, 0x85, 0x3e, 0xc4, 0xf5, 0x2f, 0xbe, 0xb8, 0x1a, 0x4e, 0x3d,
  0xa2, 0x5c, 0xd5, 0xba, 0x7f, 0xe4, 0x99, 0xbe, 0xf6, 0x2c, 0x05, 0x3e,
  0xa6, 0xed, 0x45, 0xbe, 0xc9, 0x7a, 0xb6, 0x3d, 0x90, 0x29, 0xcc, 0xbe,
  0x5d, 0x24, 0x0f, 0xbe, 0x2c, 0xec, 0xb9, 0x3d, 0x52, 0xef, 0x04, 0xbd,
  0xaf, 0x23, 0x8f, 0x3f, 0x53, 0xae, 0x91, 0xbe, 0xaa, 0xb8, 0xc2, 0xbb,
  0x47, 0x29, 0x04, 0x3e, 0x97, 0xcf, 0x94, 0xbc, 0xbd, 0x28, 0x52, 0xbe,
  0xbb, 0xc7, 0x89, 0x3d, 0xd6, 0x10, 0x47, 0x3e, 0x92, 0x2e, 0x19, 0xbe,
  0x6b, 0x5e, 0xd2, 0x3d, 0xd6, 0x30, 0x84, 0xbd, 0x65, 0x30, 0xb7, 0x3b,
  0x53, 0xcc, 0x6e, 0xbe, 0x13, 0xb8, 0x08, 0x3e, 0xb0, 0xfa, 0x62, 0xbe,
  0x40, 0x17, 0x41, 0xbe, 0xfd, 0x16, 0x5b, 0xbe, 0xf7, 0x19, 0x67, 0x3d,
  0x94, 0xc4, 0xee, 0x3d, 0x9e, 0x75, 0x38, 0x3c, 0xdd, 0x20, 0x9a, 0xbe,
  0xf9, 0xaa, 0x0a, 0x3d, 0x04, 0xa2, 0x8b, 0xbe, 0xab, 0x4a, 0x64, 0xbe,
  0xd9, 0xc9, 0x7b, 0x3e, 0x5b, 0x02, 0xc6, 0x3c, 0x91, 0xc6, 0x83, 0xbd,
  0x69, 0x6f, 0x4a, 0x3e, 0xbc, 0x47, 0xba, 0xbd, 0x03, 0x64, 0x54, 0x3e,
  0x15, 0x23, 0xf0, 0x3c, 0xb8, 0x08, 0x6b, 0xbd, 0xab, 0x58, 0xb3, 0x3d,
  0x14, 0xb1, 0xaa, 0x3d, 0x3c, 0xee, 0xb3, 0xbb, 0xeb, 0x3a, 0x89, 0x3e,
  0x48, 0x0a, 0xed, 0xbd, 0x47, 0x7c, 0x41, 0x3f, 0x88, 0x24, 0xdf, 0x39,
  0xb2, 0xf6, 0x35, 0xbe, 0x7c, 0x0d, 0x34, 0xbe, 0xdd, 0x8f, 0x84, 0x3d,
  0xb0, 0x65, 0xd3, 0xbe, 0xf0, 0x8a, 0x0a, 0x3e, 0x5f, 0xa9, 0x8c, 0x3e,
  0x5b, 0x6f, 0x74, 0x3e, 0xd8, 0x5c, 0x3b, 0xbd, 0xaf, 0x12, 0x0f, 0x3d,
  0x0f, 0x05, 0x97, 0x3d, 0x6c, 0x43, 0x27, 0x3e, 0x10, 0x17, 0x89, 0x3e,
  0x17, 0xb9, 0xb4, 0x3d, 0x94, 0x05, 0x85, 0x3d, 0xdd, 0x98, 0xc9, 0x3e,
  0xc7, 0x1b, 0x55, 0x3e, 0x1a, 0x5d, 0x35, 0xbe, 0xaf, 0xa9, 0xe7, 0xbd,
  0x00, 0x45, 0x32, 0x3e, 0xe7, 0x3b, 0xa7, 0x3c, 0x41, 0x26, 0x96, 0xbd,
  0x00, 0xb1, 0xa1, 0x3e, 0x37, 0xfa, 0xe8, 0x3e, 0x9e, 0x9f, 0x16, 0xbd,
  0xad, 0x7b, 0xc3, 0xbc, 0x73, 0xda, 0x56, 0xbe, 0x68, 0x05, 0xa1, 0x3e,
  0x3e, 0xda, 0x6a, 0x3e, 0x57, 0xc0, 0x94, 0x3e, 0xff, 0x75, 0x12, 0x3d,
  0xeb, 0x87, 0x67, 0x3e, 0xb0, 0x30, 0x68, 0xbe, 0xc6, 0x75, 0x21, 0xbe,
  0xba, 0x28, 0xa5, 0x3e, 0xce, 0x00, 0x07, 0xbd, 0x65, 0x1d, 0xf0, 0x3c,
  0x83, 0x07, 0x5b, 0x3e, 0x52, 0x93, 0x8a, 0x3e, 0x02, 0xec, 0x92, 0xbc,
  0xa2, 0xab, 0xb4, 0xbe, 0x06, 0xd3, 0x02, 0xbe, 0x22, 0x0d, 0x68, 0xbe,
  0x9a, 0x3a, 0xa7, 0x3e, 0x2f, 0x28, 0xef, 0xbd, 0xa5, 0x67, 0xa9, 0x3e,
  0x2e, 0x2b, 0xf2, 0xbd, 0xc2, 0xfd, 0x92, 0x3e, 0x72, 0x8f, 0xcd, 0xba,
  0x3e, 0x7a, 0xae, 0xbe, 0x5a, 0x06, 0x00, 0xbd, 0x76, 0xc9, 0xa5, 0xbb,
  0xa2, 0xe0, 0x1f, 0xbe, 0x6d, 0x07, 0xc7, 0x3d, 0xe5, 0x23, 0x8a, 0x3e,
  0x70, 0xc5, 0x0c, 0xbe, 0xde, 0xe8, 0x29, 0xbd, 0x38, 0x34, 0xe0, 0xbc,
  0xee, 0xd4, 0x65, 0xbb, 0xc7, 0xbb, 0x0c, 0xbe, 0x8b, 0xe3, 0x8a, 0xbd,
  0xfb, 0x7c, 0x43, 0x3d, 0x81, 0x7b, 0xc9, 0xbd, 0xf5, 0x9e, 0x9f, 0x3d,
  0x91, 0x16, 0x99, 0x3d, 0xdd, 0x3b, 0x7c, 0xbe, 0x45, 0xb2, 0x1a, 0x3e,
  0x3a, 0xbd, 0x43, 0xbd, 0xf1, 0x19, 0xab, 0xbd, 0x08, 0x44, 0x63, 0x3e,
  0x3e, 0x81, 0xcc, 0x3c, 0xc8, 0xbe, 0x06, 0x3b, 0x36, 0x70, 0xc9, 0xbc,
  0xae, 0x3f, 0xba, 0xbd, 0xfd, 0xd4, 0x91, 0xbe, 0x43, 0x9c, 0x08, 0xbe,
  0x30, 0x85, 0x04, 0xbe, 0x4a, 0x7b, 0x93, 0x3d, 0x03, 0x3e, 0x29, 0xbd,
  0xc4, 0x6f, 0xa5, 0x3e, 0x01, 0x0d, 0x44, 0x3e, 0xc2, 0x07, 0xe7, 0x3d,
  0xdb, 0x92, 0xf6, 0x3c, 0x5a, 0xf1, 0x27, 0xbe, 0xb8, 0x9d, 0x4d, 0xbe,
  0x80, 0x16, 0x56, 0xbd, 0x9b, 0x74, 0x2d, 0xbe, 0xb5, 0x3c, 0xf4, 0x3d,
  0x9e, 0x10, 0x0c, 0xbe, 0x69, 0x7e, 0x17, 0xbe, 0x66, 0x40, 0xbe, 0x3d,
  0xf9, 0xe6, 0x03, 0xbd, 0xc3, 0x46, 0xdd, 0xbd, 0xd3, 0xcf, 0x0b, 0x3e,
  0xb8, 0x84, 0xf7, 0xbc, 0xfa, 0xa6, 0xa5, 0x3e, 0xf3, 0x77, 0x7b, 0x3e,
  0x10, 0xf9, 0x1a, 0xbe, 0x41, 0x16, 0x88, 0x3d, 0x64, 0x27, 0x8c, 0xbd,
  0xf3, 0x2f, 0x22, 0xbd, 0xb5, 0x00, 0xc9, 0x3d, 0xe9, 0x28, 0x37, 0x3c,
  0xd0, 0xbc, 0xa2, 0xbd, 0x8c, 0x3a, 0xdf, 0x3d, 0x7c, 0xbf, 0x75, 0xbe,
  0xd1, 0x5e, 0xc2, 0xbd, 0x28, 0xfe, 0xe4, 0x3c, 0xaa, 0x99, 0xe3, 0xbc,
  0x88, 0xc8, 0x49, 0x3e, 0xff, 0x72, 0x64, 0x3d, 0x91, 0x1b, 0xb2, 0x3e,
  0x2f, 0x71, 0x5c, 0x3e, 0x7f, 0x5a, 0x0d, 0xbe, 0x1a, 0x04, 0xef, 0x3d,
  0xbd, 0xc5, 0x44, 0x3d, 0xfb, 0x78, 0x82, 0xbe, 0x2b, 0x48, 0x2b, 0xbe,
  0x94, 0x4c, 0x7d, 0xbe, 0x20, 0x25, 0xec, 0x3d, 0x47, 0xc1, 0x9c, 0xbd,
  0x0d, 0x1b, 0x91, 0xbb, 0xe6, 0xdc, 0x07, 0xbe, 0x4a, 0x6c, 0xb8, 0x3d,
  0x6f, 0xf8, 0x18, 0xbe, 0x08, 0xe3, 0x9e, 0x3e, 0xec, 0x0c, 0xc0, 0x3c,
  0xf2, 0x80, 0xbd, 0xbd, 0x5c, 0xb4, 0x34, 0x3d, 0x3c, 0xd6, 0xbb, 0xba,
  0x9f, 0x72, 0xb1, 0xbc, 0x95, 0xc2, 0x31, 0xbc, 0x89, 0x12, 0xe2, 0xbd,
  0xbd, 0x66, 0x6a, 0x3e, 0x45, 0x1c, 0x44, 0xbd, 0x27, 0x8c, 0x13, 0xbe,
  0x11, 0xa7, 0x96, 0xbd, 0xe9, 0x7f, 0x93, 0xbd, 0x27, 0xb0, 0x6a, 0x3b,
  0xf9, 0x11, 0x01, 0x3e, 0x7b, 0x1d, 0xbe, 0xbd, 0x12, 0x15, 0xb8, 0x3e,
  0x68, 0xd6, 0x78, 0xbd, 0xa9, 0xdc, 0x92, 0x3e, 0xe5, 0x23, 0x49, 0x3e,
  0x05, 0x35, 0xff, 0x3d, 0xd9, 0xb3, 0xa2, 0x3e, 0x71, 0xf1, 0x17, 0xbb,
  0x55, 0xdc, 0xb1, 0xbb, 0x58, 0x61, 0x8f, 0x3e, 0x5d, 0xc8, 0x5e, 0xbe,
  0x4a, 0xe1, 0x21, 0x3e, 0x24, 0xf7, 0x35, 0xbd, 0xfe, 0x6c, 0x70, 0xbe,
  0xe5, 0xa1, 0xdc, 0xbd, 0xbc, 0x1c, 0x8b, 0x3d, 0x05, 0xc4, 0xdd, 0xbd,
  0xd0, 0x73, 0x45, 0x3e, 0x47, 0xd2, 0xb9, 0x3d, 0xd6, 0x8e, 0x81, 0x3e,
  0x70, 0xc3, 0xaf, 0xbd, 0x3a, 0xe1, 0x75, 0x3d, 0x58, 0x24, 0xca, 0x3e,
  0x4a, 0xa4, 0x1e, 0xbd, 0x54, 0xf2, 0x37, 0xbe, 0x10, 0xe4, 0x12, 0x3e,
  0x65, 0x15, 0x46, 0xbd, 0xae, 0x6b, 0xc7, 0xbd, 0x28, 0x54, 0x59, 0xbe,
  0x45, 0xb1, 0x89, 0xbe, 0x76, 0x7b, 0xde, 0xbd, 0x77, 0x50, 0x14, 0xbe,
  0xbb, 0xd1, 0x8e, 0x3d, 0x84, 0x2e, 0xac, 0x3c, 0xd6, 0xe4, 0x7a, 0x3d,
  0xe9, 0x5f, 0x74, 0x3e, 0xae, 0x5a, 0xe9, 0x3d, 0xe7, 0xaa, 0x0c, 0xbb,
  0xca, 0x2b, 0xbc, 0x3d, 0x88, 0x20, 0x8c, 0xbe, 0xaa, 0xde, 0xbb, 0xbb,
  0x60, 0x8c, 0x46, 0x3e, 0x3b, 0x05, 0x83, 0x3b, 0xbc, 0x65, 0x18, 0x3e,
  0x3f, 0xf9, 0x68, 0xbd, 0x7e, 0xf8, 0x00, 0xbd, 0x94, 0x41, 0xd0, 0xbd,
  0x24, 0xec, 0x3f, 0xbe, 0x49, 0x31, 0x10, 0x3e, 0x3f, 0x88, 0xb3, 0x3a,
  0x6f, 0x9f, 0xcd, 0x3c, 0x4b, 0x03, 0xb0, 0x3e, 0xe7, 0x2a, 0x31, 0xbc,
  0xe6, 0x4f, 0xac, 0x3b, 0xcc, 0xf7, 0x62, 0xbe, 0xda, 0xc1, 0x03, 0xbe,
  0x7d, 0x99, 0x15, 0xbe, 0x58, 0xd5, 0x48, 0xbe, 0x70, 0x86, 0x66, 0x3d,
  0xb2, 0x7c, 0x5b, 0x3d, 0x66, 0x4b, 0x27, 0xbc, 0x52, 0xb7, 0xcd, 0x3c,
  0xfa, 0x7d, 0xe5, 0xbc, 0xa5, 0x29, 0x11, 0x3e, 0xe5, 0xa0, 0xb0, 0x3e,
  0x82, 0x05, 0xdc, 0xbc, 0x1e, 0x1a, 0xac, 0xbd, 0x7e, 0xfd, 0x83, 0xbe,
  0xc5, 0x9e, 0x0d, 0x3e, 0x80, 0x86, 0x0d, 0xbe, 0x1f, 0x06, 0xde, 0x3d,
  0x7e, 0x3e, 0x4d, 0x3d, 0x67, 0x85, 0xb3, 0x3d, 0xb9, 0x2d, 0x63, 0xbd,
  0x23, 0xe1, 0x0f, 0x3e, 0x21, 0x4f, 0x0d, 0x3e, 0xa4, 0xc8, 0xf6, 0x3c,
  0x92, 0x43, 0x0a, 0x3e, 0xc1, 0xff, 0x8b, 0x3e, 0xf0, 0xd7, 0x9e, 0xbd,
  0x99, 0xba, 0x2b, 0xbe, 0xa1, 0xef, 0x65, 0x3e, 0xfe, 0x15, 0x4e, 0xbe,
  0x6f, 0x5c, 0xc0, 0xbe, 0x1e, 0x92, 0x00, 0xbf, 0xad, 0x0b, 0x0c, 0x3e,
  0xbb, 0xb3, 0xb0, 0x3d, 0x85, 0x84, 0x82, 0xbe, 0x85, 0x9d, 0x4d, 0xbe,
  0x59, 0x8c, 0x5b, 0xbe, 0x3c, 0x41, 0x09, 0x3e, 0x36, 0xb1, 0xdd, 0xbd,
  0x86, 0xaa, 0x8a, 0xbe, 0x9e, 0x7b, 0xba, 0xbe, 0x54, 0x5b, 0x56, 0xbe,
  0x89, 0xd0, 0xee, 0xbe, 0x11, 0xf0, 0xde, 0x3d, 0x2d, 0x35, 0x08, 0x3e,
  0xab, 0x01, 0x05, 0x3e, 0x8b, 0x5e, 0x98, 0xbe, 0x6a, 0xf3, 0x04, 0xbf,
  0x25, 0x42, 0xe6, 0x3d, 0x78, 0xd6, 0x10, 0xbd, 0x60, 0x6c, 0xad, 0xbe,
  0x52, 0xd5, 0x2b, 0xbe, 0x11, 0xb9, 0x2b, 0x3e, 0xee, 0x33, 0xa6, 0xbd,
  0x80, 0x8c, 0x65, 0xbe, 0x72, 0xf1, 0x57, 0xbe, 0x33, 0x50, 0xc1, 0xbe,
  0xe3, 0x70, 0x07, 0xbe, 0x91, 0xbd, 0x95, 0xbe, 0x49, 0x5b, 0xae, 0x3d,
  0xb7, 0xc1, 0xca, 0x3c, 0x30, 0x12, 0x70, 0xbe, 0x81, 0x86, 0xae, 0xbe,
  0x06, 0x6c, 0xcb, 0xbe, 0x6d, 0xe1, 0x90, 0x3d, 0x6b, 0x2e, 0x2e, 0xbe,
  0x24, 0x43, 0xac, 0xbe, 0x7c, 0x1c, 0x94, 0xbd, 0x7a, 0x29, 0x75, 0x3d,
  0xb7, 0x2a, 0xb9, 0x3d, 0x3f, 0x45, 0x53, 0x3e, 0xb2, 0x20, 0x06, 0xbe,
  0x92, 0x99, 0x57, 0xbe, 0xcb, 0xd0, 0x2b, 0xbe, 0x13, 0xad, 0xb2, 0xbe,
  0xa4, 0x46, 0xb9, 0x3c, 0x97, 0x89, 0x97, 0xbd, 0xd1, 0x7d, 0x11, 0xbe,
  0xda, 0xf7, 0x15, 0xbf, 0xbd, 0xc9, 0x9e, 0xbe, 0x13, 0xeb, 0x0e, 0x3e,
  0x0b, 0x39, 0x22, 0xbe, 0x87, 0x87, 0xaf, 0xbc, 0x30, 0xc0, 0xd0, 0x3d,
  0x7c, 0xeb, 0x00, 0x3e, 0x15, 0xcd, 0x55, 0x3c, 0x56, 0xd6, 0x18, 0xbe,
  0xf1, 0xcd, 0x17, 0xbe, 0xa0, 0xe1, 0x80, 0xbe, 0xdf, 0xf7, 0x1f, 0x3e,
  0x14, 0x33, 0x5d, 0xbe, 0x59, 0xf5, 0x5f, 0x3d, 0xa3, 0x21, 0xb5, 0x3d,
  0x8a, 0x1c, 0x3e, 0xbd, 0x52, 0x8d, 0xd5, 0xbd, 0x23, 0x1f, 0x12, 0xbe,
  0xa4, 0x88, 0x70, 0x3d, 0x5e, 0x37, 0xa3, 0x3d, 0xed, 0xc1, 0x22, 0xbe,
  0xa8, 0x00, 0xc1, 0xbd, 0x62, 0x5e, 0x02, 0x3e, 0xf8, 0xdf, 0x3e, 0x3c,
  0x2b, 0x13, 0xb6, 0xbe, 0xa6, 0x09, 0x94, 0xbd, 0x3b, 0xdd, 0xe7, 0xbd,
  0x99, 0xe0, 0xe6, 0xbd, 0x0f, 0x3e, 0xd9, 0xbe, 0x3c, 0x78, 0x3b, 0xbe,
  0x48, 0x44, 0x90, 0xbe, 0xb0, 0xd3, 0x0f, 0x3d, 0xc7, 0x3c, 0x1e, 0x3e,
  0xce, 0x8f, 0xed, 0xbe, 0xb3, 0xc4, 0x43, 0xbe, 0xeb, 0xc1, 0xb7, 0xbe,
  0xa3, 0xd8, 0x78, 0xbe, 0x05, 0xe1, 0xa7, 0xbd, 0x83, 0x1d, 0x1c, 0xbe,
  0x13, 0x7c, 0xbb, 0xbd, 0x4c, 0xe4, 0x69, 0x3e, 0x90, 0x40, 0xa6, 0xbc,
  0x15, 0x54, 0x31, 0x3d, 0x62, 0xce, 0x81, 0x3e, 0x87, 0x8d, 0x8c, 0x3d,
  0x07, 0x6b, 0x86, 0x3e, 0x35, 0x33, 0x00, 0x3f, 0x2a, 0xdf, 0x70, 0xbe,
  0xf1, 0xe6, 0x60, 0xbd, 0xa4, 0x13, 0x2a, 0x3e, 0xdc, 0x31, 0xcf, 0xbe,
  0xbe, 0x42, 0xed, 0x3e, 0xcd, 0x18, 0x99, 0x3c, 0xee, 0x53, 0x83, 0x39,
  0xec, 0x8b, 0xae, 0x3e, 0xc1, 0xce, 0x59, 0xbc, 0x95, 0xee, 0x74, 0x3e,
  0xe8, 0xc4, 0xea, 0x3d, 0x95, 0x17, 0x2e, 0xbd, 0x61, 0xaa, 0x91, 0xbd,
  0xf2, 0xd8, 0x14, 0x3d, 0x56, 0x78, 0x00, 0x3f, 0x15, 0xf4, 0x78, 0xbe,
  0x90, 0xa0, 0x12, 0xbe, 0xb1, 0xe7, 0xe0, 0x3a, 0x57, 0x24, 0xd1, 0xbd,
  0xbe, 0x7b, 0xb8, 0x3d, 0xb1, 0xe5, 0x21, 0x3f, 0xd4, 0xb5, 0xa8, 0xbb,
  0x4a, 0x6e, 0xaa, 0xbd, 0x89, 0x12, 0x77, 0xbe, 0x47, 0xd6, 0xc9, 0xbd,
  0xd6, 0x8b, 0x9d, 0xbd, 0x48, 0x05, 0x18, 0xbc, 0x0b, 0x3b, 0xf2, 0x3c,
  0x0a, 0x12, 0x93, 0xbe, 0x53, 0xe7, 0x1e, 0xbf, 0x35, 0xba, 0xc6, 0xbe,
  0x5e, 0xeb, 0x08, 0x3e, 0x1d, 0x56, 0xe1, 0x3c, 0x4d, 0xc5, 0x0f, 0x3c,
  0xca, 0x1e, 0x47, 0xbe, 0x3a, 0x5e, 0x27, 0x3e, 0xdf, 0xa2, 0x84, 0xbe,
  0xd3, 0x03, 0x6e, 0xbf, 0x55, 0xc8, 0x6e, 0x3b, 0xe2, 0x8d, 0xb7, 0x3d,
  0x64, 0x6b, 0xcd, 0xbe, 0xd6, 0x9c, 0xc3, 0xbe, 0x5f, 0xcf, 0x08, 0xbf,
  0xa5, 0x81, 0x74, 0xbe, 0x17, 0x71, 0xfa, 0xbe, 0xc6, 0xc1, 0xdb, 0xbe,
  0xea, 0x0d, 0xa8, 0xbe, 0x51, 0xbe, 0x5b, 0xbd, 0x15, 0x5a, 0x31, 0xbd,
  0x1b, 0xcf, 0xc5, 0xbc, 0x79, 0x70, 0x8f, 0xbd, 0x2a, 0x35, 0x1e, 0xbd,
  0x44, 0x3e, 0x01, 0xbf, 0x32, 0x44, 0x57, 0xbf, 0xfa, 0xca, 0x0a, 0xbc,
  0xc1, 0xa9, 0x8e, 0xbd, 0xca, 0x74, 0xad, 0xbe, 0x94, 0xee, 0xa8, 0x3e,
  0x61, 0xf9, 0x04, 0xbf, 0x6e, 0xe4, 0x3e, 0xbe, 0x05, 0x0d, 0xc1, 0xbe,
  0x67, 0x92, 0xc5, 0xbd, 0x51, 0xbd, 0x9b, 0x3e, 0x6a, 0x03, 0x82, 0xbd,
  0x90, 0x1a, 0x56, 0xbe, 0x23, 0x53, 0xf4, 0xbd, 0xfa, 0xb6, 0x74, 0x3d,
  0xd4, 0xbe, 0x08, 0xbe, 0x94, 0xaa, 0x30, 0xbe, 0x7a, 0xf6, 0x75, 0xbc,
  0xc9, 0xbb, 0x6b, 0xbd, 0x71, 0xca, 0x43, 0xbd, 0x17, 0xa3, 0xa7, 0x3e,
  0xb5, 0x60, 0x07, 0x3f, 0x12, 0x46, 0xe9, 0x3c, 0x95, 0x14, 0x16, 0xbe,
  0x10, 0xb7, 0xad, 0x3d, 0x34, 0x4d, 0x2d, 0x3e, 0x33, 0x92, 0xd6, 0x3e,
  0xd2, 0x30, 0xa4, 0xbe, 0xca, 0xcc, 0x62, 0xbe, 0x2b, 0x43, 0x09, 0xbe,
  0xee, 0xa5, 0x9b, 0xbd, 0xb3, 0xe1, 0x79, 0xbe, 0x9f, 0x97, 0x09, 0x3f,
  0x3f, 0xda, 0xc9, 0x3c, 0x4b, 0x28, 0x8e, 0xbd, 0xf6, 0xe3, 0x09, 0xbe,
  0x23, 0xd1, 0xfa, 0x3e, 0xe1, 0x9f, 0x10, 0x3e, 0x4c, 0x61, 0x53, 0xbd,
  0x4d, 0x4f, 0x5c, 0xba, 0xea, 0xc5, 0x87, 0x3e, 0xa1, 0xcf, 0xb7, 0x3c,
  0xbe, 0xff, 0x8e, 0x3d, 0xf9, 0xa7, 0x82, 0x3d, 0xb8, 0xc8, 0x5f, 0xbd,
  0x26, 0x3e, 0x55, 0xbe, 0x97, 0x35, 0x36, 0xbd, 0x87, 0xfb, 0xa4, 0xbd,
  0xbd, 0xb1, 0x40, 0x3d, 0xad, 0xed, 0xf5, 0x3d, 0x87, 0x28, 0x95, 0x3d,
  0x7b, 0x65, 0x45, 0x3e, 0x47, 0x63, 0x28, 0x3e, 0xe0, 0x93, 0x1b, 0xbe,
  0x04, 0xc3, 0x3c, 0xbe, 0x61, 0x5b, 0x9a, 0xbe, 0xb5, 0x87, 0x4a, 0xbd,
  0x61, 0x00, 0xb0, 0x3d, 0x98, 0x5d, 0x54, 0x3b, 0x49, 0xff, 0xce, 0x3e,
  0x3c, 0x18, 0x8d, 0xbe, 0xfe, 0x63, 0xa5, 0x3e, 0x85, 0x3a, 0x58, 0x3d,
  0x70, 0x4c, 0x2a, 0xbd, 0x2a, 0x17, 0xfc, 0x3d, 0xc1, 0x6a, 0x06, 0xbe,
  0x23, 0x5e, 0x10, 0x3e, 0x2f, 0xd7, 0xad, 0x3d, 0x7d, 0xfa, 0x76, 0xbe,
  0xc5, 0x1c, 0xa1, 0x3d, 0x80, 0x89, 0x7d, 0xbe, 0x88, 0x68, 0xb2, 0xbd,
  0xb3, 0xe2, 0xe8, 0xbd, 0x30, 0x79, 0x01, 0xbe, 0x85, 0xb0, 0x7e, 0x3d,
  0xff, 0x01, 0x1e, 0xbc, 0x2f, 0x31, 0xf2, 0xbd, 0xd5, 0x45, 0xb4, 0x3e,
  0x20, 0x36, 0xc0, 0xbd, 0x32, 0xc7, 0xdd, 0xbd, 0x63, 0x5b, 0x33, 0x3e,
  0x3d, 0x55, 0x76, 0xbd, 0x26, 0xc1, 0x32, 0xbe, 0x74, 0x47, 0x22, 0xbe,
  0xd5, 0x3c, 0xeb, 0xbd, 0x8e, 0x07, 0xbe, 0xbd, 0xc8, 0xad, 0xce, 0xbd,
  0x13, 0x2a, 0xa1, 0x3d, 0xda, 0x23, 0x87, 0xbc, 0x6a, 0xe6, 0xcc, 0x3c,
  0x94, 0xae, 0xd1, 0xbc, 0x93, 0x82, 0x0d, 0x3e, 0x60, 0xac, 0x81, 0x3d,
  0x51, 0x49, 0x77, 0x3e, 0xcb, 0x0f, 0xa6, 0x3d, 0x90, 0xaa, 0x17, 0x3e,
  0x78, 0x92, 0xc4, 0x3d, 0x37, 0x69, 0x06, 0xbe, 0xf6, 0x16, 0x1a, 0xbe,
  0x78, 0xc0, 0x37, 0x3e, 0x6a, 0x27, 0xcf, 0xbd, 0x88, 0x59, 0x4f, 0x3c,
  0x03, 0xb0, 0x04, 0xbe, 0x07, 0x46, 0xaa, 0xbd, 0x61, 0x2e, 0xc9, 0xbd,
  0xc0, 0xe6, 0x89, 0xbd, 0x83, 0x30, 0x6c, 0x3e, 0xf4, 0x3a, 0xff, 0x3e,
  0xfc, 0xc0, 0x8a, 0xbc, 0xf5, 0x77, 0x83, 0x3e, 0xc1, 0xa7, 0xc5, 0xbd,
  0x66, 0xd7, 0x46, 0xbd, 0xcf, 0x98, 0x6a, 0xbd, 0xb1, 0x83, 0xd0, 0x3c,
  0x5b, 0x92, 0x97, 0xbd, 0x48, 0x41, 0x1b, 0x3e, 0x57, 0xfc, 0x66, 0x3d,
  0x3b, 0xf8, 0xdd, 0x3d, 0xa2, 0xd0, 0x18, 0xbc, 0xf0, 0x44, 0x07, 0x3d,
  0xc1, 0xd3, 0x9c, 0xbd, 0xd8, 0xe9, 0x39, 0xbd, 0xb7, 0xd5, 0x90, 0x3e,
  0x4c, 0x6b, 0xbc, 0x3e, 0xb3, 0x4f, 0x0a, 0x3d, 0xc2, 0x10, 0x01, 0x3f,
  0x1c, 0xd6, 0x59, 0xbe, 0x25, 0x6c, 0x30, 0x3d, 0x3a, 0x29, 0xc3, 0xbc,
  0x1e, 0x8e, 0x41, 0xbd, 0xcf, 0xcb, 0x08, 0xbe, 0x51, 0xd8, 0x2d, 0xbe,
  0xf6, 0x48, 0xf4, 0xbd, 0xd1, 0x80, 0x9b, 0xbb, 0xa0, 0xf4, 0xca, 0xbd,
  0x81, 0xc0, 0xc6, 0xbd, 0xc4, 0x36, 0xd4, 0xbd, 0x29, 0x82, 0x0f, 0xbe,
  0xc0, 0x27, 0x6c, 0xbd, 0xa8, 0xb8, 0xa9, 0x3e, 0xa1, 0x9e, 0xf5, 0xbc,
  0x27, 0x13, 0xc4, 0x3e, 0x91, 0xc5, 0xe6, 0xbd, 0x8e, 0xa5, 0x6e, 0xbd,
  0x08, 0x57, 0x69, 0x3e, 0x8f, 0x1c, 0x84, 0xbe, 0xbd, 0x72, 0x74, 0xbd,
  0x70, 0x64, 0x14, 0xbe, 0xbd, 0x6b, 0x1d, 0xbe, 0xe9, 0xd7, 0x9e, 0x3c,
  0x66, 0x08, 0x6b, 0xbd, 0xd4, 0x3d, 0x8c, 0x3d, 0x00, 0xca, 0x0a, 0xbe,
  0x8a, 0xe7, 0xd3, 0xbd, 0xdf, 0x18, 0xe0, 0x3d, 0xae, 0x5b, 0xa3, 0xbd,
  0xf4, 0xee, 0x95, 0xbd, 0x55, 0x97, 0xa7, 0x3e, 0x37, 0x42, 0xfe, 0xbd,
  0xb3, 0xb3, 0xaa, 0xbd, 0x8f, 0x76, 0xbd, 0xbe, 0xb1, 0x5f, 0x38, 0xbe,
  0x91, 0xd8, 0x66, 0xbd, 0x18, 0xec, 0x29, 0xbe, 0xc7, 0xa8, 0xf9, 0x3d,
  0x13, 0xb4, 0x4f, 0xbe, 0x3e, 0xbf, 0x26, 0xbd, 0x94, 0x75, 0x9a, 0xbe,
  0xc4, 0x4c, 0x28, 0x3f, 0x27, 0x41, 0xd7, 0xbd, 0xc5, 0x92, 0x6f, 0xbe,
  0xe8, 0x93, 0xaa, 0x3d, 0x45, 0xde, 0x59, 0xbe, 0x3f, 0x1d, 0xf5, 0xbd,
  0x07, 0x92, 0xaa, 0xbe, 0x4c, 0x37, 0xd6, 0xbd, 0x79, 0x2a, 0x9a, 0x3c,
  0x25, 0xef, 0xab, 0xbd, 0x1e, 0x80, 0x59, 0xbe, 0xe0, 0x1a, 0xf6, 0xbb,
  0xac, 0x17, 0x0e, 0x3d, 0x54, 0x15, 0x06, 0x3e, 0xf2, 0xc4, 0x11, 0xbe,
  0x6f, 0x08, 0xd5, 0xbd, 0x16, 0x87, 0x89, 0x3f, 0x15, 0x89, 0x2e, 0xbc,
  0x78, 0x26, 0x23, 0xbe, 0xde, 0x86, 0x01, 0x3e, 0xed, 0x81, 0xd8, 0x3d,
  0xcb, 0x94, 0x08, 0xbd, 0x51, 0x96, 0xb0, 0xbd, 0x1f, 0xb0, 0x3c, 0xbe,
  0x83, 0xd6, 0xea, 0x3c, 0x1c, 0x82, 0x79, 0xbd, 0xa8, 0x2e, 0x23, 0xbe,
  0x2a, 0xf6, 0xcc, 0x3b, 0xdb, 0xdb, 0xe4, 0x3d, 0xe9, 0x7a, 0x31, 0xbe,
  0x77, 0x12, 0x8d, 0x3d, 0x28, 0xa9, 0x38, 0xbd, 0x51, 0xc2, 0x87, 0x3f,
  0x5d, 0x32, 0xe9, 0x3b, 0xe9, 0x0b, 0x6a, 0x3a, 0x8d, 0x16, 0x50, 0xbe,
  0xed, 0x1f, 0xaa, 0xbd, 0x87, 0x05, 0x8b, 0x3d, 0xb3, 0xf8, 0x2a, 0xbe,
  0xc4, 0xe3, 0xb1, 0x3d, 0x38, 0xac, 0xc1, 0xbd, 0x15, 0x8c, 0x34, 0x3d,
  0x21, 0xbe, 0x7a, 0xbd, 0x8f, 0xcf, 0x39, 0xbe, 0x88, 0xd0, 0x78, 0xbe,
  0xfd, 0xeb, 0x95, 0xba, 0x80, 0x1d, 0x1c, 0xbe, 0xb3, 0xf5, 0xf3, 0x3c,
  0x8e, 0xa9, 0x6f, 0x3f, 0x81, 0x51, 0x38, 0xbc, 0xc5, 0x62, 0x4c, 0x3d,
  0x94, 0x3a, 0xba, 0x3d, 0x93, 0x38, 0x30, 0xbd, 0xb4, 0x92, 0xfe, 0x3c,
  0x8a, 0xa8, 0x7d, 0xbd, 0x1f, 0xae, 0xf2, 0x3d, 0x6e, 0x9f, 0x62, 0x3e,
  0x0f, 0xe3, 0x95, 0x3d, 0x2c, 0x92, 0xac, 0xbd, 0x35, 0x34, 0x43, 0xbc,
  0x6b, 0x5a, 0x49, 0x3d, 0x3b, 0x6b, 0xec, 0x3d, 0xea, 0x15, 0x8d, 0x3e,
  0x3e, 0x11, 0x44, 0x3d, 0x70, 0x09, 0x8a, 0x3f, 0x6b, 0x36, 0x1e, 0xbe,
  0x02, 0x93, 0xb1, 0x3d, 0xbc, 0xad, 0x32, 0xbe, 0xe5, 0xcf, 0xa1, 0x3e,
  0xea, 0x33, 0x61, 0xbd, 0x2b, 0x5f, 0x9f, 0xbe, 0xec, 0xbb, 0x85, 0x3d,
  0x98, 0x2f, 0x2e, 0xbe, 0x5c, 0xbc, 0xdc, 0xbd, 0x3c, 0x5b, 0x11, 0xbe,
  0x1b, 0x3a, 0x44, 0x3e, 0x6a, 0xd9, 0xa2, 0xbd, 0xa8, 0xcf, 0x8e, 0xbd,
  0xdf, 0x3c, 0xd0, 0xbd, 0x99, 0xd9, 0x7f, 0xbd, 0x4a, 0x1a, 0x0d, 0x3f,
  0x84, 0x8e, 0xcf, 0xbd, 0x68, 0x7f, 0x82, 0x3d, 0x17, 0xa1, 0xc2, 0xbd,
  0xef, 0xcf, 0xab, 0x3d, 0x1c, 0x17, 0xf0, 0x3d, 0x06, 0x09, 0xc2, 0xbd,
  0xc1, 0x2e, 0x50, 0xbd, 0x89, 0x4f, 0x2a, 0xbc, 0x69, 0x3f, 0x72, 0xbc,
  0x70, 0xbb, 0xdc, 0xbd, 0x6c, 0x2b, 0xdb, 0x3d, 0xfa, 0xc6, 0xb8, 0x3c,
  0xc6, 0xa4, 0x7c, 0x3c, 0x23, 0x1b, 0xb3, 0xbd, 0x3c, 0x54, 0xd8, 0xbd,
  0x8a, 0x74, 0x1a, 0x3f, 0xab, 0xfd, 0x79, 0xbd, 0x8d, 0x1d, 0xc9, 0x3d,
  0xad, 0xc8, 0x3f, 0x3c, 0xef, 0x7f, 0x52, 0xbe, 0xb8, 0x54, 0xf7, 0xbd,
  0x1d, 0xe9, 0x54, 0xbc, 0xe8, 0xff, 0x45, 0xbe, 0x83, 0x70, 0x83, 0x3c,
  0x33, 0xb8, 0xf4, 0x3d, 0xbb, 0x74, 0x85, 0xbe, 0x99, 0xbe, 0xac, 0x3c,
  0xeb, 0x17, 0xd1, 0xbd, 0x4a, 0xc8, 0x6b, 0x3d, 0xc7, 0xe5, 0xda, 0xbd,
  0x17, 0x06, 0x62, 0xbe, 0x3a, 0x9d, 0xdd, 0xbd, 0x7e, 0xde, 0x9c, 0xbe,
  0x45, 0xda, 0x22, 0xbd, 0x37, 0x09, 0x5a, 0xbe, 0x7b, 0xbb, 0x84, 0xbd,
  0xd7, 0x3b, 0x8c, 0x3e, 0xb6, 0x39, 0xf6, 0x3b, 0xf6, 0x3e, 0x87, 0x3d,
  0x87, 0x0a, 0x17, 0x3d, 0x6e, 0x58, 0x29, 0xbc, 0xf9, 0xd3, 0x91, 0xbe,
  0xb3, 0x58, 0xb9, 0x3b, 0x18, 0xff, 0xb1, 0x3d, 0x93, 0xde, 0x15, 0xbe,
  0xfc, 0x28, 0x53, 0xbe, 0x5b, 0xf6, 0xdb, 0xbc, 0x5a, 0x90, 0xba, 0xbd,
  0xc3, 0x27, 0x90, 0xbe, 0x3d, 0xcd, 0x51, 0x3d, 0x3e, 0xd6, 0x35, 0xbe,
  0x91, 0x4f, 0x09, 0xbd, 0x0d, 0x54, 0x04, 0xbd, 0x11, 0x97, 0x94, 0xbe,
  0xdd, 0x0e, 0x60, 0xbe, 0xcd, 0x85, 0xdd, 0xbd, 0x92, 0x59, 0xf9, 0xbd,
  0x80, 0x2c, 0x00, 0xbe, 0x63, 0x42, 0x38, 0xbc, 0xbe, 0x50, 0x8f, 0x3d,
  0xaa, 0x8d, 0x20, 0xbe, 0xbd, 0xa7, 0xe7, 0xbd, 0x81, 0x09, 0x28, 0xbe,
  0x5b, 0xf3, 0x0c, 0xbe, 0x36, 0x03, 0xe9, 0xbd, 0xc8, 0xf4, 0xe8, 0x3c,
  0xe0, 0xf1, 0x1f, 0x3e, 0x02, 0xe3, 0x61, 0x3c, 0x62, 0xc5, 0xc6, 0x3d,
  0xcd, 0x2f, 0x3f, 0xbe, 0x8d, 0x8f, 0xc8, 0x3d, 0x47, 0x0b, 0xe5, 0xbd,
  0xd3, 0xba, 0x0d, 0x3d, 0xa1, 0x0e, 0xc6, 0xbd, 0x01, 0x3c, 0x7b, 0xbd,
  0x52, 0x9a, 0xd2, 0xbd, 0x14, 0x9e, 0x63, 0x3d, 0x53, 0x38, 0xf7, 0xbd,
  0x6f, 0xf9, 0x04, 0xbd, 0x19, 0xf9, 0x8d, 0xbe, 0xc9, 0xf3, 0x18, 0xbd,
  0xc3, 0x8d, 0x12, 0xbe, 0x9b, 0xe3, 0x0e, 0xbe, 0x4e, 0x7b, 0x35, 0x3d,
  0x32, 0x45, 0x4c, 0x3c, 0x3c, 0x3c, 0x03, 0xbe, 0xf1, 0x07, 0x85, 0x3d,
  0x46, 0x88, 0xe6, 0xbd, 0x3d, 0xbc, 0x74, 0xbc, 0xb6, 0xce, 0xc7, 0xbd,
  0xff, 0xd6, 0xd8, 0xbd, 0x6b, 0x0f, 0x05, 0xbe, 0x38, 0x5e, 0x47, 0xbe,
  0x94, 0x75, 0x8a, 0x3c, 0xec, 0x86, 0x4a, 0xbe, 0xc9, 0x62, 0x8f, 0x3c,
  0x0f, 0x6b, 0x03, 0xbe, 0xbb, 0x3b, 0x37, 0xbe, 0xbe, 0xe1, 0x47, 0xbc,
  0x0a, 0x5b, 0x99, 0xbc, 0xf7, 0xfd, 0x15, 0x3e, 0x94, 0x6f, 0xa1, 0xbd,
  0x60, 0x06, 0x8c, 0xbc, 0xaa, 0x6f, 0xeb, 0x3d, 0xca, 0xc3, 0xac, 0xbd,
  0xad, 0x87, 0xf0, 0xbd, 0xef, 0xf0, 0x6a, 0x3d, 0x11, 0xf1, 0x1e, 0xbd,
  0xe5, 0x64, 0x2e, 0x3e, 0x13, 0xe2, 0xea, 0xbd, 0x6e, 0x66, 0xed, 0xbd,
  0x7a, 0xa3, 0xd4, 0xbd, 0x64, 0xac, 0xd9, 0xbd, 0x1c, 0x26, 0x42, 0x3e,
  0x19, 0x89, 0x35, 0x3e, 0x0d, 0x04, 0xf5, 0x3d, 0x77, 0x99, 0x4c, 0x3d,
  0x1f, 0x34, 0x73, 0xb9, 0x84, 0xcf, 0xa8, 0xbd, 0x3e, 0x09, 0x54, 0xbe,
  0x53, 0xfd, 0xc1, 0xbd, 0xfb, 0xce, 0xa6, 0xbe, 0x49, 0x82, 0x0a, 0x3e,
  0x06, 0x20, 0x39, 0xbe, 0xb4, 0xb5, 0x71, 0xbd, 0xf2, 0xbd, 0x40, 0xbd,
  0x9b, 0x3b, 0xbf, 0xbd, 0x3a, 0x78, 0x55, 0xbe, 0x09, 0x4e, 0x41, 0xbe,
  0x39, 0x56, 0xc7, 0xbb, 0x54, 0x8a, 0x04, 0x3e, 0xa9, 0x4e, 0x84, 0xbc,
  0xf5, 0x39, 0x76, 0x3c, 0xfa, 0xaa, 0x0d, 0xbe, 0x90, 0x3b, 0xe7, 0x3b,
  0x45, 0x37, 0xaf, 0xbd, 0xe6, 0x76, 0x46, 0xbd, 0x88, 0x58, 0x54, 0xbe,
  0x2d, 0x95, 0x0c, 0xbe, 0x73, 0x62, 0x62, 0xbe, 0xdf, 0xa6, 0xd5, 0x3c,
  0x6f, 0x53, 0xab, 0xbe, 0x7d, 0x28, 0xb5, 0xbd, 0xbe, 0x3d, 0x70, 0xbe,
  0xbd, 0x82, 0x35, 0x3d, 0x8d, 0x71, 0x09, 0x3d, 0x5b, 0x80, 0x04, 0x3d,
  0x0b, 0x53, 0x56, 0xbd, 0xdd, 0x95, 0x91, 0x3d, 0x2c, 0x1f, 0xe7, 0x3d,
  0xe6, 0x93, 0x64, 0xbe, 0x27, 0x0b, 0x5d, 0x3e, 0x17, 0x5f, 0x40, 0xbe,
  0x9d, 0x3e, 0x69, 0x3d, 0x39, 0x18, 0x96, 0xbe, 0x34, 0xe2, 0x0b, 0xbe,
  0x13, 0xaf, 0xbc, 0xbd, 0x67, 0x4f, 0xa7, 0xbe, 0xa9, 0x6a, 0x95, 0xbd,
  0x77, 0x81, 0x49, 0xbe, 0x5a, 0x5d, 0x38, 0x3e, 0x45, 0xb4, 0x9d, 0x3d,
  0xc7, 0xf0, 0x8b, 0xbd, 0xb0, 0xdf, 0xe9, 0x3c, 0x00, 0xf3, 0x83, 0x3e,
  0x73, 0x8e, 0x27, 0x3d, 0x50, 0x56, 0xdd, 0xbd, 0x5f, 0xfe, 0x2f, 0xbe,
  0xca, 0xed, 0x6c, 0xbd, 0x9a, 0x2b, 0x25, 0x3d, 0x8d, 0x6f, 0x7a, 0x3d,
  0x77, 0xbc, 0x50, 0x3e, 0x75, 0x60, 0x88, 0xbb, 0x7a, 0x18, 0x24, 0xbe,
  0x87, 0xb0, 0x06, 0x3e, 0x65, 0x1e, 0x7c, 0xb9, 0xae, 0xac, 0xb3, 0x3e,
  0x58, 0x70, 0xf1, 0xbc, 0x0c, 0xd7, 0xc0, 0xbd, 0xe2, 0xaa, 0x67, 0x3c,
  0xb4, 0x28, 0xe6, 0x3e, 0x0d, 0xf8, 0x7a, 0x3a, 0x79, 0xb8, 0x14, 0xbe,
  0x13, 0x42, 0x49, 0xbb, 0xd0, 0xa2, 0xff, 0xbd, 0x6c, 0xa9, 0x05, 0x3d,
  0x49, 0xb1, 0xab, 0x3d, 0x10, 0x38, 0x47, 0x3e, 0x3b, 0x91, 0x86, 0x3d,
  0xf0, 0xe9, 0xe6, 0xbc, 0x8e, 0xf7, 0x09, 0xbe, 0xd5, 0x12, 0x56, 0xbe,
  0x53, 0x08, 0x0c, 0x3e, 0xcb, 0xea, 0x7a, 0x3d, 0x42, 0x9c, 0xe1, 0x3d,
  0x22, 0x14, 0x01, 0x3d, 0x16, 0xde, 0x83, 0x3e, 0x34, 0xce, 0xd1, 0x3c,
  0xa1, 0xb5, 0xa1, 0xbc, 0xb4, 0x1f, 0xb7, 0x3d, 0x0a, 0xba, 0x0f, 0xbe,
  0x6a, 0x05, 0xd8, 0x3c, 0x8a, 0x35, 0xf8, 0x3c, 0x88, 0xd5, 0x8d, 0x3e,
  0x99, 0x8c, 0x50, 0x3d, 0x5a, 0x01, 0x34, 0xbe, 0x6a, 0xdb, 0xa3, 0xbd,
  0xa3, 0x09, 0xce, 0xbd, 0x39, 0xae, 0xaa, 0x3e, 0x93, 0xc0, 0x19, 0xbe,
  0x62, 0x5c, 0x67, 0x3c, 0x27, 0x81, 0x82, 0xbd, 0x53, 0xdc, 0x0c, 0x3f,
  0xe0, 0x97, 0x8e, 0xbc, 0xf3, 0x32, 0x47, 0xbd, 0xf3, 0x6c, 0x21, 0xbe,
  0xa0, 0x9c, 0x8b, 0xbe, 0x59, 0x6c, 0xf4, 0xbc, 0x78, 0x93, 0xc0, 0x3e,
  0x6e, 0xe5, 0x86, 0xbd, 0xe1, 0x1d, 0x82, 0xbe, 0xb5, 0x4e, 0x82, 0xbe,
  0x44, 0xc8, 0x77, 0xbd, 0x5a, 0xe5, 0x13, 0xbe, 0x79, 0xc4, 0x20, 0x3e,
  0xb1, 0x23, 0x8b, 0x3d, 0x9a, 0x2a, 0x3a, 0x3e, 0x55, 0x1f, 0x89, 0xbd,
  0x4f, 0x90, 0x3a, 0x3f, 0xb9, 0x2c, 0xe4, 0xbc, 0xb8, 0x41, 0x19, 0xbe,
  0xbd, 0x80, 0x19, 0xbe, 0x40, 0x72, 0x61, 0xbe, 0x6c, 0x37, 0x86, 0xbb,
  0x27, 0x68, 0x25, 0x3e, 0x88, 0x27, 0xa0, 0x3d, 0x02, 0x45, 0x0d, 0xbe,
  0xde, 0xf3, 0xa0, 0xbd, 0xe9, 0x83, 0x51, 0xbc, 0x75, 0x1c, 0x02, 0xbe,
  0x8d, 0x7d, 0x32, 0xbd, 0xc7, 0x57, 0x4b, 0xbd, 0xc2, 0x73, 0xa7, 0x3d,
  0xa7, 0x70, 0x11, 0xbe, 0xd8, 0x1c, 0x04, 0x3e, 0xb9, 0x6e, 0x3f, 0x3b,
  0xb3, 0x9c, 0x43, 0xbd, 0x54, 0x32, 0xef, 0x3c, 0xef, 0x76, 0x1b, 0xbe,
  0x2e, 0x0b, 0xc0, 0x3d, 0x1f, 0x04, 0x9a, 0xbd, 0xfc, 0x6e, 0xb6, 0x3b,
  0x28, 0x9c, 0x90, 0x3e, 0x0b, 0x35, 0x33, 0xbd, 0x2a, 0x7a, 0xc5, 0xbd,
  0xdf, 0xcb, 0x62, 0x3f, 0x89, 0x9f, 0x08, 0x3e, 0x91, 0xa0, 0x0d, 0x3e,
  0x00, 0x50, 0xfa, 0x3e, 0xbd, 0xee, 0x0a, 0xbe, 0xcc, 0xde, 0x7e, 0x3e,
  0x5e, 0xc0, 0x94, 0xbc, 0x5f, 0xf7, 0xaf, 0xbe, 0x00, 0x53, 0xc3, 0x3d,
  0x9f, 0x0e, 0xeb, 0x3d, 0x1e, 0xc0, 0xbd, 0x3c, 0x85, 0x13, 0xd8, 0x3e,
  0x86, 0xc0, 0x21, 0x3e, 0x76, 0xa0, 0xe3, 0xbd, 0xbe, 0xbb, 0x17, 0x3e,
  0xf2, 0x7e, 0x2a, 0x3e, 0xd2, 0x4d, 0x98, 0x3f, 0xa5, 0xdb, 0x8d, 0xbd,
  0x60, 0x49, 0x9f, 0xbd, 0x32, 0x21, 0x26, 0xbd, 0x60, 0x06, 0x2b, 0xbe,
  0x7e, 0xa6, 0x2b, 0x3e, 0xd9, 0x4a, 0xf5, 0xbd, 0x71, 0x64, 0x70, 0x3e,
  0xad, 0x82, 0x33, 0x3e, 0x79, 0x42, 0x9a, 0xbe, 0xe4, 0xba, 0xb9, 0x3c,
  0x0d, 0xb5, 0xa4, 0x3d, 0x5f, 0xf0, 0x77, 0xbe, 0x91, 0xf7, 0x54, 0xbd,
  0xe1, 0x3c, 0x1d, 0xbe, 0xea, 0x01, 0x7d, 0xbe, 0x44, 0x55, 0xc1, 0x3f,
  0xa4, 0x0a, 0x2f, 0xbf, 0xc9, 0x41, 0x13, 0xbc, 0x9b, 0x85, 0x78, 0xbc,
  0xde, 0x99, 0xcd, 0xbc, 0x1b, 0xd1, 0x62, 0x3d, 0x44, 0x6c, 0x68, 0xbe,
  0x17, 0x4b, 0x52, 0x3c, 0xb9, 0x85, 0xf8, 0xbc, 0x19, 0xd8, 0xc6, 0xbe,
  0x05, 0x7e, 0x1f, 0xbd, 0x2d, 0x5f, 0x79, 0xbd, 0xd6, 0x4d, 0x1a, 0xbe,
  0x13, 0x11, 0x98, 0xbc, 0x1d, 0xa2, 0x88, 0xbe, 0xd1, 0x58, 0xf9, 0xbe,
  0xcb, 0xeb, 0xa8, 0x3f, 0xc7, 0xce, 0xf8, 0xbe, 0x75, 0xfe, 0xe2, 0x3d,
  0x74, 0x91, 0x6e, 0xbe, 0xc6, 0x72, 0xe8, 0xbd, 0x3c, 0x3f, 0xbd, 0x3c,
  0x36, 0x83, 0x8a, 0x3c, 0xb6, 0x65, 0x7f, 0xbd, 0x3f, 0xc4, 0x54, 0xbe,
  0x52, 0xd6, 0xf0, 0xbe, 0x69, 0x7f, 0x20, 0x3d, 0x76, 0x11, 0x11, 0xbd,
  0x1b, 0x08, 0xb3, 0x3c, 0xfa, 0xee, 0xa5, 0xbd, 0xe1, 0x57, 0x6e, 0xbe,
  0x07, 0x96, 0xe4, 0xbd, 0x1f, 0xa4, 0xb2, 0x3f, 0x17, 0x73, 0x98, 0xbe,
  0x07, 0x18, 0x0d, 0x3d, 0xba, 0x19, 0x70, 0xbd, 0xe0, 0xcc, 0xd5, 0xbd,
  0x80, 0x96, 0xc5, 0x3d, 0x8f, 0xf2, 0xa4, 0x3d, 0x80, 0x33, 0x55, 0x3d,
  0x7e, 0x73, 0x49, 0xbe, 0xa6, 0x31, 0xc9, 0xbd, 0x9a, 0xe8, 0x87, 0xbd,
  0x86, 0xf6, 0x8e, 0xbd, 0x05, 0x36, 0x70, 0xbd, 0x24, 0xcc, 0x8a, 0xbd,
  0x96, 0x0c, 0x87, 0xbe, 0x09, 0x63, 0xff, 0xbd, 0x41, 0x24, 0xac, 0x3f,
  0xb9, 0x35, 0xd3, 0xbe, 0x56, 0x07, 0x21, 0xbe, 0xe7, 0x89, 0x49, 0x3c,
  0xc3, 0xc9, 0x88, 0xbe, 0x38, 0x46, 0x4b, 0x3d, 0x75, 0x9c, 0x41, 0x3d,
  0x36, 0xf4, 0x62, 0x3c, 0xf9, 0xf7, 0x37, 0xbe, 0x91, 0xe1, 0x7f, 0xbc,
  0x9d, 0xac, 0xc1, 0xbc, 0x93, 0xd8, 0x48, 0xbe, 0xe0, 0x6c, 0x21, 0xbe,
  0xa8, 0x0d, 0xac, 0x3d, 0x28, 0x06, 0x42, 0xbe, 0x66, 0x92, 0xaf, 0xbd,
  0xc8, 0x38, 0xb6, 0x3f, 0xa7, 0x81, 0x03, 0xbc, 0x27, 0x97, 0x86, 0xbd,
  0xda, 0x17, 0x6f, 0x3c, 0xaf, 0xcb, 0x10, 0x3d, 0xa4, 0x48, 0x13, 0xbe,
  0xff, 0xfa, 0x7d, 0xbd, 0xa6, 0x4a, 0x06, 0x3d, 0x16, 0xde, 0xf6, 0x3c,
  0x72, 0x0b, 0xbf, 0x3d, 0xdb, 0x82, 0xb1, 0xbc, 0x80, 0x53, 0x00, 0xbe,
  0x47, 0xd1, 0xa4, 0x3c, 0x75, 0x1f, 0x85, 0x3d, 0x51, 0x73, 0x4e, 0xbe,
  0x58, 0xc7, 0xa4, 0xbd, 0x78, 0x3d, 0xd1, 0x3d, 0xc6, 0x2b, 0xd6, 0xbd,
  0xdb, 0x8c, 0xd0, 0xbd, 0x89, 0x35, 0x22, 0x3e, 0x65, 0xb9, 0x78, 0xbc,
  0x77, 0xa7, 0xf0, 0xbd, 0x14, 0x7f, 0xc8, 0xbd, 0xb0, 0x66, 0xad, 0xbe,
  0x9b, 0xa0, 0xe2, 0xbd, 0xeb, 0x30, 0xba, 0xbd, 0x0f, 0xd1, 0xba, 0xbd,
  0xf6, 0xb5, 0xd7, 0x3d, 0x40, 0x7b, 0x4a, 0xbe, 0x72, 0x69, 0x07, 0x3d,
  0x49, 0x45, 0x82, 0xbe, 0x8b, 0x09, 0xeb, 0x3d, 0x86, 0x07, 0x04, 0xbe,
  0xbf, 0xd6, 0x19, 0x3e, 0xd5, 0x4f, 0xab, 0xbd, 0xdc, 0x66, 0x96, 0xbe,
  0x27, 0xd4, 0x36, 0x3c, 0x84, 0x21, 0x94, 0xbd, 0x33, 0xa7, 0x8a, 0xbd,
  0xa8, 0x13, 0x1e, 0xbe, 0x05, 0x0b, 0x8b, 0x3d, 0x29, 0x5d, 0x6f, 0xbe,
  0xf9, 0xc5, 0x44, 0xbe, 0x05, 0x7d, 0x7f, 0xbe, 0x27, 0x0b, 0x32, 0x3e,
  0x8d, 0x4c, 0xf4, 0x3c, 0x82, 0xc1, 0x86, 0x3d, 0xbe, 0x79, 0x4d, 0xbe,
  0x1e, 0x43, 0x8f, 0x3c, 0xc1, 0xa4, 0xd7, 0x3d, 0xbd, 0x7a, 0xd0, 0x3d,
  0x47, 0x65, 0x1c, 0xbe, 0x12, 0x1d, 0x9d, 0x3d, 0xc7, 0x6e, 0xd5, 0xbc,
  0xd2, 0x2d, 0xa2, 0xbc, 0x9d, 0x02, 0x07, 0xbe, 0xe7, 0x8d, 0x68, 0xbe,
  0x50, 0x93, 0xe7, 0x3d, 0x6e, 0x2c, 0xb6, 0xbd, 0xb8, 0x45, 0x30, 0xbe,
  0x1d, 0x85, 0x86, 0xbe, 0xd2, 0x2f, 0xdb, 0xbd, 0x21, 0xe0, 0xb0, 0xbe,
  0x1c, 0xf0, 0xda, 0xbd, 0x2f, 0x2b, 0x88, 0xbe, 0x67, 0xd6, 0x2d, 0xbd,
  0x4d, 0x02, 0xe1, 0x3d, 0x55, 0xc9, 0x19, 0xbe, 0xe9, 0x6b, 0x0e, 0xbd,
  0xb6, 0xf0, 0x71, 0xbd, 0xf2, 0xf8, 0xae, 0x3c, 0x9e, 0x74, 0xc5, 0xbe,
  0x02, 0x0b, 0xb3, 0x3c, 0x8a, 0x38, 0x03, 0xbe, 0x14, 0xdd, 0x23, 0xbe,
  0x39, 0xe8, 0x74, 0xbe, 0x8b, 0x98, 0xb0, 0x3d, 0xfc, 0x88, 0x21, 0xbe,
  0x0a, 0xae, 0x0d, 0xbe, 0xd0, 0x25, 0x77, 0xbe, 0x26, 0x51, 0x8c, 0x3d,
  0x0f, 0x4d, 0x6d, 0xbd, 0x26, 0x56, 0x12, 0x3d, 0x08, 0x06, 0xf7, 0x3d,
  0xa0, 0x94, 0x1a, 0x3c, 0x36, 0x98, 0xd7, 0xbd, 0xfc, 0xe2, 0xb8, 0xbd,
  0x2f, 0x25, 0xe5, 0xbe, 0x16, 0xce, 0xfa, 0xbc, 0x36, 0xd2, 0x31, 0x3d,
  0x8a, 0x4b, 0x04, 0xbc, 0xbb, 0x29, 0xa5, 0xbd, 0x98, 0xba, 0x6d, 0xbe,
  0xf1, 0x3c, 0x24, 0xbe, 0xb7, 0x74, 0x30, 0x3b, 0xc4, 0x8b, 0x4e, 0xbe,
  0xd9, 0xc1, 0x81, 0xbe, 0x57, 0xdc, 0x23, 0xbe, 0xbf, 0xbb, 0xcb, 0x3d,
  0xc7, 0x7a, 0x01, 0xbc, 0x29, 0xf8, 0x0a, 0xbe, 0x8a, 0x19, 0x70, 0x3e,
  0xaa, 0x4a, 0x32, 0x3d, 0x5d, 0x04, 0xd2, 0xbe, 0xf7, 0x71, 0x1b, 0xbb,
  0xf6, 0x2f, 0x73, 0xbd, 0xa5, 0x74, 0xa2, 0xbe, 0x70, 0x53, 0x16, 0x3c,
  0x76, 0xae, 0x98, 0xba, 0xf1, 0x36, 0x07, 0x3e, 0x27, 0x90, 0xb7, 0xbd,
  0xa6, 0x85, 0x3c, 0xbd, 0x3b, 0xe8, 0x72, 0xbe, 0x94, 0x1c, 0x3c, 0x3b,
  0x01, 0xd3, 0x74, 0x3e, 0x1a, 0x16, 0x37, 0xbd, 0xb9, 0x9f, 0xbc, 0xbd,
  0x3f, 0x95, 0xa9, 0xbe, 0x45, 0xa9, 0x11, 0x3e, 0x9e, 0x1f, 0x88, 0xbd,
  0x3f, 0x20, 0xc9, 0x3d, 0xe3, 0x17, 0xc0, 0x3d, 0x54, 0x2c, 0xed, 0x3c,
  0x6d, 0x72, 0x96, 0x3e, 0x50, 0xde, 0x97, 0x3e, 0x4a, 0xfe, 0xff, 0xff,
  0x10, 0x00, 0x00, 0x00, 0x05, 0x00, 0x00, 0x00, 0x14, 0x00, 0x00, 0x00,
  0x2c, 0x00, 0x00, 0x00, 0x02, 0x00, 0x00, 0x00, 0x10, 0x00, 0x00, 0x00,
  0x70, 0x00, 0x00, 0x00, 0x17, 0x00, 0x00, 0x00, 0x73, 0x65, 0x71, 0x75,
  0x65, 0x6e, 0x74, 0x69, 0x61, 0x6c, 0x2f, 0x64, 0x65, 0x6e, 0x73, 0x65,
  0x2f, 0x4d, 0x61, 0x74, 0x4d, 0x75, 0x6c, 0x00, 0x38, 0xfe, 0xff, 0xff,
  0x2e, 0xff, 0xff, 0xff, 0x04, 0x00, 0x00, 0x00, 0x08, 0x00, 0x00, 0x00,
  0xff, 0xff, 0xff, 0xff, 0x70, 0x00, 0x00, 0x00, 0x00, 0x00, 0x0e, 0x00,
  0x18, 0x00, 0x08, 0x00, 0x07, 0x00, 0x0c, 0x00, 0x10, 0x00, 0x14, 0x00,
  0x0e, 0x00, 0x00, 0x00, 0x00, 0x00, 0x00, 0x02, 0x10, 0x00, 0x00, 0x00,
  0x04, 0x00, 0x00, 0x00, 0x10, 0x00, 0x00, 0x00, 0x2c, 0x00, 0x00, 0x00,
  0x01, 0x00, 0x00, 0x00, 0x02, 0x00, 0x00, 0x00, 0x18, 0x00, 0x00, 0x00,
  0x73, 0x65, 0x71, 0x75, 0x65, 0x6e, 0x74, 0x69, 0x61, 0x6c, 0x2f, 0x66,
  0x6c, 0x61, 0x74, 0x74, 0x65, 0x6e, 0x2f, 0x43, 0x6f, 0x6e, 0x73, 0x74,
  0x00, 0x00, 0x00, 0x00, 0xa0, 0xfe, 0xff, 0xff, 0x96, 0xff, 0xff, 0xff,
  0x04, 0x00, 0x00, 0x00, 0x0c, 0x00, 0x00, 0x00, 0x0e, 0x90, 0x49, 0xbf,
  0x0e, 0xa0, 0x89, 0xc0, 0x4b, 0x74, 0x32, 0x40, 0x0a, 0xff, 0xff, 0xff,
  0x10, 0x00, 0x00, 0x00, 0x03, 0x00, 0x00, 0x00, 0x10, 0x00, 0x00, 0x00,
  0x3c, 0x00, 0x00, 0x00, 0x01, 0x00, 0x00, 0x00, 0x03, 0x00, 0x00, 0x00,
  0x29, 0x00, 0x00, 0x00, 0x73, 0x65, 0x71, 0x75, 0x65, 0x6e, 0x74, 0x69,
  0x61, 0x6c, 0x2f, 0x64, 0x65, 0x6e, 0x73, 0x65, 0x5f, 0x31, 0x2f, 0x42,
  0x69, 0x61, 0x73, 0x41, 0x64, 0x64, 0x2f, 0x52, 0x65, 0x61, 0x64, 0x56,
  0x61, 0x72, 0x69, 0x61, 0x62, 0x6c, 0x65, 0x4f, 0x70, 0x00, 0x00, 0x00,
  0x60, 0xff, 0xff, 0xff, 0x00, 0x00, 0x06, 0x00, 0x08, 0x00, 0x04, 0x00,
  0x06, 0x00, 0x00, 0x00, 0x04, 0x00, 0x00, 0x00, 0x40, 0x00, 0x00, 0x00,
  0x40, 0xf6, 0xf6, 0xbf, 0x78, 0x35, 0x9c, 0xbf, 0xfd, 0x39, 0xc4, 0x3f,
  0x26, 0x5a, 0x61, 0xbd, 0x28, 0x3b, 0x61, 0xbf, 0x30, 0x04, 0x15, 0x40,
  0x7a, 0x08, 0xe5, 0xbd, 0x34, 0xaa, 0x7d, 0x3e, 0xa3, 0x98, 0x63, 0xbf,
  0x32, 0x95, 0xb0, 0xbf, 0x0f, 0x82, 0x7f, 0x3f, 0x2d, 0x07, 0xb4, 0xbc,
  0xb8, 0xf4, 0x47, 0xbe, 0x5f, 0xfd, 0x08, 0x40, 0x2a, 0xd2, 0xe5, 0xbe,
  0x64, 0xc6, 0x45, 0xbe, 0xae, 0xff, 0xff, 0xff, 0x10, 0x00, 0x00, 0x00,
  0x02, 0x00, 0x00, 0x00, 0x10, 0x00, 0x00, 0x00, 0x3c, 0x00, 0x00, 0x00,
  0x01, 0x00, 0x00, 0x00, 0x10, 0x00, 0x00, 0x00, 0x27, 0x00, 0x00, 0x00,
  0x73, 0x65, 0x71, 0x75, 0x65, 0x6e, 0x74, 0x69, 0x61, 0x6c, 0x2f, 0x64,
  0x65, 0x6e, 0x73, 0x65, 0x2f, 0x42, 0x69, 0x61, 0x73, 0x41, 0x64, 0x64,
  0x2f, 0x52, 0x65, 0x61, 0x64, 0x56, 0x61, 0x72, 0x69, 0x61, 0x62, 0x6c,
  0x65, 0x4f, 0x70, 0x00, 0x04, 0x00, 0x06, 0x00, 0x04, 0x00, 0x00, 0x00,
  0x00, 0x00, 0x0e, 0x00, 0x14, 0x00, 0x04, 0x00, 0x00, 0x00, 0x08, 0x00,
  0x0c, 0x00, 0x10, 0x00, 0x0e, 0x00, 0x00, 0x00, 0x10, 0x00, 0x00, 0x00,
  0x01, 0x00, 0x00, 0x00, 0x1c, 0x00, 0x00, 0x00, 0x2c, 0x00, 0x00, 0x00,
  0x04, 0x00, 0x00, 0x00, 0x01, 0x00, 0x00, 0x00, 0x40, 0x00, 0x00, 0x00,
  0x03, 0x00, 0x00, 0x00, 0x01, 0x00, 0x00, 0x00, 0x0c, 0x00, 0x00, 0x00,
  0x63, 0x6f, 0x6e, 0x76, 0x32, 0x64, 0x5f, 0x69, 0x6e, 0x70, 0x75, 0x74,
  0x00, 0x00, 0x00, 0x00, 0xfc, 0xff, 0xff, 0xff, 0x04, 0x00, 0x04, 0x00,
  0x04, 0x00, 0x00, 0x00
};


unsigned int model_tflite_len = 12316;// Fill the int in `src/model.cc` here